{
  "version": "1.0",
  "truncation": null,
  "padding": null,
  "added_tokens": [
    {
      "id": 0,
      "content": "<pad>",
      "single_word": false,
      "lstrip": false,
      "rstrip": false,
      "normalized": false,
      "special": true
    },
    {
      "id": 1,
      "content": "<bos>",
      "single_word": false,
      "lstrip": false,
      "rstrip": false,
      "normalized": false,
      "special": true
    },
    {
      "id": 2,
      "content": "<eos>",
      "single_word": false,
      "lstrip": false,
      "rstrip": false,
      "normalized": false,
      "special": true
    },
    {
      "id": 3,
      "content": "<unk>",
      "single_word": false,
      "lstrip": false,
      "rstrip": false,
      "normalized": false,
      "special": true
    }
  ],
  "normalizer": {
    "type": "Sequence",
    "normalizers": [
      {
        "type": "NFD"
      },
      {
        "type": "Lowercase"
      },
      {
        "type": "StripAccents"
      }
    ]
  },
  "pre_tokenizer": {
    "type": "Whitespace"
  },
  "post_processor": null,
  "decoder": null,
  "model": {
    "type": "BPE",
    "dropout": null,
    "unk_token": "<unk>",
    "continuing_subword_prefix": null,
    "end_of_word_suffix": null,
    "fuse_unk": false,
    "byte_fallback": false,
    "ignore_merges": false,
    "vocab": {
      "<pad>": 0,
      "<bos>": 1,
      "<eos>": 2,
      "<unk>": 3,
      "!": 4,
      "\"": 5,
      "#": 6,
      "$": 7,
      "%": 8,
      "&": 9,
      "'": 10,
      "(": 11,
      ")": 12,
      "+": 13,
      ",": 14,
      "-": 15,
      ".": 16,
      "/": 17,
      "0": 18,
      "1": 19,
      "2": 20,
      "3": 21,
      "4": 22,
      "5": 23,
      "6": 24,
      "7": 25,
      "8": 26,
      "9": 27,
      ":": 28,
      ";": 29,
      "?": 30,
      "[": 31,
      "]": 32,
      "`": 33,
      "a": 34,
      "b": 35,
      "c": 36,
      "d": 37,
      "e": 38,
      "f": 39,
      "g": 40,
      "h": 41,
      "i": 42,
      "j": 43,
      "k": 44,
      "l": 45,
      "m": 46,
      "n": 47,
      "o": 48,
      "p": 49,
      "q": 50,
      "r": 51,
      "s": 52,
      "t": 53,
      "u": 54,
      "v": 55,
      "w": 56,
      "x": 57,
      "y": 58,
      "z": 59,
      "·": 60,
      "—": 61,
      "…": 62,
      "th": 63,
      "in": 64,
      "an": 65,
      "re": 66,
      "the": 67,
      "on": 68,
      "er": 69,
      "at": 70,
      "en": 71,
      "al": 72,
      "es": 73,
      "or": 74,
      "is": 75,
      "it": 76,
      "to": 77,
      "ic": 78,
      "ed": 79,
      "and": 80,
      "ar": 81,
      "ing": 82,
      "as": 83,
      "of": 84,
      "ou": 85,
      "ion": 86,
      "st": 87,
      "ro": 88,
      "ent": 89,
      "le": 90,
      "om": 91,
      "de": 92,
      "il": 93,
      "se": 94,
      "ve": 95,
      "ac": 96,
      "ly": 97,
      "be": 98,
      "for": 99,
      "ch": 100,
      "con": 101,
      "tr": 102,
      "ol": 103,
      "ation": 104,
      "un": 105,
      "that": 106,
      "su": 107,
      "im": 108,
      "lo": 109,
      "wh": 110,
      "ad": 111,
      "ver": 112,
      "ut": 113,
      "no": 114,
      "mo": 115,
      "ment": 116,
      "pro": 117,
      "am": 118,
      "ct": 119,
      "ies": 120,
      "ld": 121,
      "ce": 122,
      "ig": 123,
      "ab": 124,
      "us": 125,
      "are": 126,
      "ter": 127,
      "pe": 128,
      "ill": 129,
      "oun": 130,
      "com": 131,
      "ir": 132,
      "ne": 133,
      "ag": 134,
      "ur": 135,
      "res": 136,
      "id": 137,
      "ate": 138,
      "we": 139,
      "po": 140,
      "wi": 141,
      "ity": 142,
      "ts": 143,
      "ul": 144,
      "with": 145,
      "ap": 146,
      "af": 147,
      "ers": 148,
      "ke": 149,
      "ma": 150,
      "ex": 151,
      "ess": 152,
      "est": 153,
      "em": 154,
      "li": 155,
      "he": 156,
      "wor": 157,
      "ric": 158,
      "by": 159,
      "ould": 160,
      "so": 161,
      "not": 162,
      "coun": 163,
      "but": 164,
      "ge": 165,
      "op": 166,
      "over": 167,
      "ial": 168,
      "ha": 169,
      "ive": 170,
      "if": 171,
      "ther": 172,
      "ain": 173,
      "all": 174,
      "iv": 175,
      "sh": 176,
      "ay": 177,
      "will": 178,
      "pol": 179,
      "has": 180,
      "por": 181,
      "one": 182,
      "have": 183,
      "igh": 184,
      "countr": 185,
      "more": 186,
      "te": 187,
      "econ": 188,
      "man": 189,
      "ust": 190,
      "econom": 191,
      "qu": 192,
      "fe": 193,
      "its": 194,
      "out": 195,
      "iz": 196,
      "fro": 197,
      "ans": 198,
      "from": 199,
      "pl": 200,
      "act": 201,
      "eu": 202,
      "afric": 203,
      "red": 204,
      "ist": 205,
      "ical": 206,
      "end": 207,
      "this": 208,
      "ions": 209,
      "cr": 210,
      "their": 211,
      "per": 212,
      "pr": 213,
      "ye": 214,
      "ren": 215,
      "ind": 216,
      "par": 217,
      "cl": 218,
      "our": 219,
      "port": 220,
      "gh": 221,
      "ant": 222,
      "20": 223,
      "co": 224,
      "countries": 225,
      "der": 226,
      "me": 227,
      "can": 228,
      "euro": 229,
      "ow": 230,
      "was": 231,
      "world": 232,
      "row": 233,
      "able": 234,
      "str": 235,
      "ong": 236,
      "ast": 237,
      "cre": 238,
      "ia": 239,
      "ev": 240,
      "fo": 241,
      "nation": 242,
      "bal": 243,
      "they": 244,
      "ure": 245,
      "ef": 246,
      "new": 247,
      "od": 248,
      "year": 249,
      "cial": 250,
      "cent": 251,
      "than": 252,
      "pres": 253,
      "ich": 254,
      "dis": 255,
      "gr": 256,
      "overn": 257,
      "would": 258,
      "au": 259,
      "govern": 260,
      "grow": 261,
      "which": 262,
      "uct": 263,
      "um": 264,
      "ance": 265,
      "other": 266,
      "ated": 267,
      "fin": 268,
      "ous": 269,
      "part": 270,
      "ary": 271,
      "comm": 272,
      "do": 273,
      "ough": 274,
      "economic": 275,
      "age": 276,
      "ie": 277,
      "now": 278,
      "ip": 279,
      "mar": 280,
      "national": 281,
      "go": 282,
      "low": 283,
      "ates": 284,
      "cess": 285,
      "bl": 286,
      "inter": 287,
      "glo": 288,
      "ack": 289,
      "ign": 290,
      "ome": 291,
      "ard": 292,
      "pre": 293,
      "velo": 294,
      "cur": 295,
      "global": 296,
      "develo": 297,
      "ments": 298,
      "develop": 299,
      "inv": 300,
      "ach": 301,
      "ban": 302,
      "europe": 303,
      "form": 304,
      "cont": 305,
      "ight": 306,
      "amer": 307,
      "king": 308,
      "ble": 309,
      "up": 310,
      "polit": 311,
      "ta": 312,
      "americ": 313,
      "uc": 314,
      "bo": 315,
      "most": 316,
      "fr": 317,
      "chin": 318,
      "reg": 319,
      "polic": 320,
      "reat": 321,
      "fic": 322,
      "lead": 323,
      "ud": 324,
      "ence": 325,
      "like": 326,
      "br": 327,
      "ations": 328,
      "peop": 329,
      "pos": 330,
      "who": 331,
      "need": 332,
      "av": 333,
      "ber": 334,
      "el": 335,
      "come": 336,
      "many": 337,
      "ree": 338,
      "ine": 339,
      "ult": 340,
      "ll": 341,
      "ob": 342,
      "ors": 343,
      "some": 344,
      "ire": 345,
      "ade": 346,
      "there": 347,
      "ple": 348,
      "growth": 349,
      "been": 350,
      "chan": 351,
      "ide": 352,
      "ser": 353,
      "people": 354,
      "ks": 355,
      "ting": 356,
      "ces": 357,
      "these": 358,
      "invest": 359,
      "ener": 360,
      "ition": 361,
      "alth": 362,
      "ound": 363,
      "ens": 364,
      "ime": 365,
      "unit": 366,
      "ile": 367,
      "ility": 368,
      "africa": 369,
      "sup": 370,
      "even": 371,
      "years": 372,
      "whe": 373,
      "ty": 374,
      "illion": 375,
      "sp": 376,
      "fore": 377,
      "ra": 378,
      "sy": 379,
      "only": 380,
      "ally": 381,
      "int": 382,
      "such": 383,
      "also": 384,
      "under": 385,
      "ue": 386,
      "finan": 387,
      "ger": 388,
      "should": 389,
      "political": 390,
      "ace": 391,
      "less": 392,
      "ian": 393,
      "pu": 394,
      "own": 395,
      "wer": 396,
      "min": 397,
      "must": 398,
      "ish": 399,
      "publ": 400,
      "gy": 401,
      "way": 402,
      "ism": 403,
      "ress": 404,
      "could": 405,
      "work": 406,
      "creas": 407,
      "policy": 408,
      "lar": 409,
      "high": 410,
      "war": 411,
      "bet": 412,
      "lect": 413,
      "prov": 414,
      "about": 415,
      "und": 416,
      "ident": 417,
      "old": 418,
      "pt": 419,
      "tw": 420,
      "cap": 421,
      "increas": 422,
      "rest": 423,
      "ative": 424,
      "inte": 425,
      "prod": 426,
      "ris": 427,
      "his": 428,
      "international": 429,
      "when": 430,
      "public": 431,
      "long": 432,
      "ital": 433,
      "what": 434,
      "marke": 435,
      "ame": 436,
      "19": 437,
      "cor": 438,
      "government": 439,
      "ted": 440,
      "dr": 441,
      "ms": 442,
      "ass": 443,
      "ious": 444,
      "power": 445,
      "may": 446,
      "china": 447,
      "lear": 448,
      "ful": 449,
      "any": 450,
      "were": 451,
      "fl": 452,
      "201": 453,
      "cau": 454,
      "far": 455,
      "contin": 456,
      "fir": 457,
      "put": 458,
      "development": 459,
      "just": 460,
      "cal": 461,
      "rent": 462,
      "200": 463,
      "tur": 464,
      "while": 465,
      "dec": 466,
      "ho": 467,
      "ating": 468,
      "day": 469,
      "stem": 470,
      "cause": 471,
      "country": 472,
      "mu": 473,
      "them": 474,
      "ak": 475,
      "cer": 476,
      "where": 477,
      "cris": 478,
      "financial": 479,
      "very": 480,
      "comp": 481,
      "main": 482,
      "si": 483,
      "ater": 484,
      "ild": 485,
      "ents": 486,
      "fa": 487,
      "sur": 488,
      "health": 489,
      "leaders": 490,
      "african": 491,
      "rel": 492,
      "ced": 493,
      "ose": 494,
      "fect": 495,
      "cy": 496,
      "trans": 497,
      "ci": 498,
      "into": 499,
      "ities": 500,
      "states": 501,
      "president": 502,
      "system": 503,
      "ep": 504,
      "time": 505,
      "change": 506,
      "fact": 507,
      "des": 508,
      "sum": 509,
      "ific": 510,
      "olo": 511,
      "deb": 512,
      "vers": 513,
      "aid": 514,
      "hel": 515,
      "vic": 516,
      "united": 517,
      "ory": 518,
      "sol": 519,
      "much": 520,
      "fund": 521,
      "eng": 522,
      "trade": 523,
      "economy": 524,
      "recent": 525,
      "two": 526,
      "emp": 527,
      "bas": 528,
      "mis": 529,
      "led": 530,
      "gener": 531,
      "had": 532,
      "those": 533,
      "inst": 534,
      "because": 535,
      "imate": 536,
      "great": 537,
      "je": 538,
      "proble": 539,
      "crisis": 540,
      "ization": 541,
      "stand": 542,
      "pect": 543,
      "ics": 544,
      "ten": 545,
      "gu": 546,
      "help": 547,
      "med": 548,
      "cond": 549,
      "after": 550,
      "ustr": 551,
      "support": 552,
      "add": 553,
      "ort": 554,
      "arly": 555,
      "product": 556,
      "att": 557,
      "00": 558,
      "dif": 559,
      "fer": 560,
      "well": 561,
      "jap": 562,
      "rough": 563,
      "als": 564,
      "ution": 565,
      "exam": 566,
      "ize": 567,
      "european": 568,
      "hu": 569,
      "sub": 570,
      "import": 571,
      "land": 572,
      "ability": 573,
      "tech": 574,
      "incl": 575,
      "sim": 576,
      "dem": 577,
      "di": 578,
      "ists": 579,
      "ural": 580,
      "requ": 581,
      "cour": 582,
      "remain": 583,
      "real": 584,
      "sel": 585,
      "ite": 586,
      "techn": 587,
      "ween": 588,
      "pon": 589,
      "tal": 590,
      "vo": 591,
      "set": 592,
      "first": 593,
      "bus": 594,
      "la": 595,
      "tern": 596,
      "again": 597,
      "good": 598,
      "between": 599,
      "ning": 600,
      "pul": 601,
      "sure": 602,
      "col": 603,
      "wom": 604,
      "youn": 605,
      "inde": 606,
      "today": 607,
      "billion": 608,
      "governments": 609,
      "gress": 610,
      "cons": 611,
      "ject": 612,
      "investment": 613,
      "cus": 614,
      "how": 615,
      "last": 616,
      "vel": 617,
      "ters": 618,
      "cas": 619,
      "demo": 620,
      "make": 621,
      "example": 622,
      "read": 623,
      "cost": 624,
      "bank": 625,
      "ves": 626,
      "get": 627,
      "arch": 628,
      "become": 629,
      "current": 630,
      "val": 631,
      "chall": 632,
      "american": 633,
      "bu": 634,
      "through": 635,
      "ise": 636,
      "too": 637,
      "state": 638,
      "popul": 639,
      "her": 640,
      "back": 641,
      "sul": 642,
      "africas": 643,
      "mone": 644,
      "iven": 645,
      "ump": 646,
      "stain": 647,
      "effect": 648,
      "large": 649,
      "young": 650,
      "don": 651,
      "ss": 652,
      "both": 653,
      "interest": 654,
      "sustain": 655,
      "loy": 656,
      "industr": 657,
      "iness": 658,
      "educ": 659,
      "ual": 660,
      "ict": 661,
      "sect": 662,
      "respon": 663,
      "use": 664,
      "thing": 665,
      "social": 666,
      "minis": 667,
      "important": 668,
      "technolo": 669,
      "unity": 670,
      "rus": 671,
      "tain": 672,
      "turn": 673,
      "order": 674,
      "outh": 675,
      "ized": 676,
      "car": 677,
      "capital": 678,
      "japan": 679,
      "dom": 680,
      "know": 681,
      "spe": 682,
      "ential": 683,
      "ving": 684,
      "qual": 685,
      "partic": 686,
      "ese": 687,
      "climate": 688,
      "effor": 689,
      "ward": 690,
      "then": 691,
      "tri": 692,
      "suc": 693,
      "ready": 694,
      "resul": 695,
      "key": 696,
      "debt": 697,
      "ben": 698,
      "jor": 699,
      "nor": 700,
      "sign": 701,
      "term": 702,
      "democr": 703,
      "vis": 704,
      "business": 705,
      "gan": 706,
      "ince": 707,
      "uring": 708,
      "exp": 709,
      "market": 710,
      "eas": 711,
      "hold": 712,
      "vie": 713,
      "acy": 714,
      "call": 715,
      "har": 716,
      "my": 717,
      "against": 718,
      "fut": 719,
      "pric": 720,
      "ons": 721,
      "ily": 722,
      "appro": 723,
      "made": 724,
      "ives": 725,
      "likely": 726,
      "ging": 727,
      "job": 728,
      "utions": 729,
      "ext": 730,
      "leg": 731,
      "seem": 732,
      "major": 733,
      "elect": 734,
      "ional": 735,
      "every": 736,
      "already": 737,
      "being": 738,
      "app": 739,
      "strate": 740,
      "future": 741,
      "pa": 742,
      "cho": 743,
      "economies": 744,
      "care": 745,
      "ko": 746,
      "foreign": 747,
      "ically": 748,
      "strong": 749,
      "hip": 750,
      "reform": 751,
      "ilit": 752,
      "child": 753,
      "ures": 754,
      "secur": 755,
      "ug": 756,
      "yet": 757,
      "tax": 758,
      "still": 759,
      "level": 760,
      "cred": 761,
      "vi": 762,
      "ann": 763,
      "search": 764,
      "ghan": 765,
      "worlds": 766,
      "employ": 767,
      "education": 768,
      "lab": 769,
      "servic": 770,
      "energy": 771,
      "indeed": 772,
      "benef": 773,
      "terr": 774,
      "oper": 775,
      "jo": 776,
      "sion": 777,
      "markets": 778,
      "women": 779,
      "vir": 780,
      "art": 781,
      "off": 782,
      "see": 783,
      "includ": 784,
      "lin": 785,
      "issu": 786,
      "trump": 787,
      "peri": 788,
      "priv": 789,
      "struct": 790,
      "instit": 791,
      "down": 792,
      "del": 793,
      "gest": 794,
      "mem": 795,
      "vent": 796,
      "accoun": 797,
      "uni": 798,
      "emer": 799,
      "opport": 800,
      "short": 801,
      "fail": 802,
      "pay": 803,
      "mak": 804,
      "cord": 805,
      "demand": 806,
      "ib": 807,
      "security": 808,
      "atic": 809,
      "ared": 810,
      "soc": 811,
      "ending": 812,
      "does": 813,
      "take": 814,
      "les": 815,
      "reas": 816,
      "resour": 817,
      "without": 818,
      "action": 819,
      "commit": 820,
      "human": 821,
      "dp": 822,
      "mon": 823,
      "gram": 824,
      "bor": 825,
      "hist": 826,
      "ness": 827,
      "research": 828,
      "food": 829,
      "million": 830,
      "ran": 831,
      "since": 832,
      "top": 833,
      "sci": 834,
      "rev": 835,
      "often": 836,
      "adv": 837,
      "program": 838,
      "nex": 839,
      "irect": 840,
      "increasing": 841,
      "self": 842,
      "labor": 843,
      "cing": 844,
      "ient": 845,
      "force": 846,
      "clear": 847,
      "lim": 848,
      "oc": 849,
      "ri": 850,
      "tim": 851,
      "ys": 852,
      "plan": 853,
      "centr": 854,
      "certain": 855,
      "russ": 856,
      "fam": 857,
      "agree": 858,
      "ights": 859,
      "cannot": 860,
      "ues": 861,
      "offic": 862,
      "ouse": 863,
      "stud": 864,
      "mental": 865,
      "milit": 866,
      "pot": 867,
      "ians": 868,
      "mid": 869,
      "ply": 870,
      "uce": 871,
      "ice": 872,
      "liber": 873,
      "ivity": 874,
      "problem": 875,
      "tribut": 876,
      "might": 877,
      "rate": 878,
      "inno": 879,
      "consum": 880,
      "truct": 881,
      "ades": 882,
      "unities": 883,
      "success": 884,
      "approach": 885,
      "next": 886,
      "same": 887,
      "tar": 888,
      "socie": 889,
      "ca": 890,
      "pend": 891,
      "road": 892,
      "access": 893,
      "afghan": 894,
      "sector": 895,
      "direct": 896,
      "house": 897,
      "ken": 898,
      "threat": 899,
      "americas": 900,
      "ways": 901,
      "better": 902,
      "though": 903,
      "ref": 904,
      "defic": 905,
      "america": 906,
      "clo": 907,
      "used": 908,
      "net": 909,
      "particul": 910,
      "mit": 911,
      "another": 912,
      "envir": 913,
      "prove": 914,
      "ately": 915,
      "environ": 916,
      "bi": 917,
      "ds": 918,
      "gre": 919,
      "mat": 920,
      "sen": 921,
      "ably": 922,
      "fac": 923,
      "gdp": 924,
      "past": 925,
      "tary": 926,
      "organ": 927,
      "union": 928,
      "move": 929,
      "compe": 930,
      "diffe": 931,
      "including": 932,
      "progress": 933,
      "agric": 934,
      "quest": 935,
      "contro": 936,
      "challeng": 937,
      "efforts": 938,
      "agricult": 939,
      "),": 940,
      "ail": 941,
      "right": 942,
      "needed": 943,
      "employment": 944,
      "innov": 945,
      "ck": 946,
      "gn": 947,
      "trad": 948,
      "suf": 949,
      "compan": 950,
      "view": 951,
      "credit": 952,
      "military": 953,
      "et": 954,
      "hal": 955,
      "ok": 956,
      "three": 957,
      "ins": 958,
      "infl": 959,
      "ings": 960,
      "decl": 961,
      "farm": 962,
      "aim": 963,
      "bre": 964,
      "ports": 965,
      "play": 966,
      "prof": 967,
      "sible": 968,
      "bon": 969,
      "around": 970,
      "cept": 971,
      "abl": 972,
      "growing": 973,
      "children": 974,
      "services": 975,
      "private": 976,
      "fol": 977,
      "lit": 978,
      "treat": 979,
      "partn": 980,
      "regul": 981,
      "needs": 982,
      "quality": 983,
      "central": 984,
      "bar": 985,
      "cut": 986,
      "sing": 987,
      "isra": 988,
      "accord": 989,
      "comes": 990,
      "banks": 991,
      "0s": 992,
      "did": 993,
      "fed": 994,
      "ges": 995,
      "second": 996,
      "promis": 997,
      "point": 998,
      "few": 999,
      "got": 1000,
      "problems": 1001,
      "address": 1002,
      "fis": 1003,
      "pur": 1004,
      "rates": 1005,
      "south": 1006,
      "ved": 1007,
      "income": 1008,
      "ency": 1009,
      "ivid": 1010,
      "decades": 1011,
      "pers": 1012,
      "rights": 1013,
      "tle": 1014,
      "ually": 1015,
      "reach": 1016,
      "ross": 1017,
      "beli": 1018,
      "process": 1019,
      "based": 1020,
      ").": 1021,
      "ied": 1022,
      "ph": 1023,
      "among": 1024,
      "mean": 1025,
      "free": 1026,
      "mal": 1027,
      "ages": 1028,
      "focus": 1029,
      "money": 1030,
      "result": 1031,
      "companies": 1032,
      "fiscal": 1033,
      "ave": 1034,
      "fall": 1035,
      "ged": 1036,
      "given": 1037,
      "nuc": 1038,
      "thor": 1039,
      "ilater": 1040,
      "before": 1041,
      "poor": 1042,
      "appe": 1043,
      "course": 1044,
      "build": 1045,
      "sustainable": 1046,
      "terror": 1047,
      "follow": 1048,
      "big": 1049,
      "izing": 1050,
      "istan": 1051,
      "cially": 1052,
      "case": 1053,
      "challenges": 1054,
      "tion": 1055,
      "init": 1056,
      "ury": 1057,
      "cogn": 1058,
      "resources": 1059,
      "potential": 1060,
      "nuclear": 1061,
      "cam": 1062,
      "improve": 1063,
      "project": 1064,
      "ago": 1065,
      "moreover": 1066,
      "rather": 1067,
      "risk": 1068,
      "jobs": 1069,
      "account": 1070,
      "ilateral": 1071,
      "50": 1072,
      "equ": 1073,
      "concer": 1074,
      "crit": 1075,
      "itional": 1076,
      "signific": 1077,
      "univers": 1078,
      "ias": 1079,
      "kill": 1080,
      "wes": 1081,
      "thin": 1082,
      "espe": 1083,
      "chinese": 1084,
      "law": 1085,
      "gies": 1086,
      "num": 1087,
      "expect": 1088,
      "tect": 1089,
      "author": 1090,
      "industrial": 1091,
      "especially": 1092,
      "air": 1093,
      "dle": 1094,
      "pat": 1095,
      "she": 1096,
      "coming": 1097,
      "ider": 1098,
      "199": 1099,
      "simil": 1100,
      "mig": 1101,
      "sm": 1102,
      "ides": 1103,
      "establ": 1104,
      "ship": 1105,
      "policies": 1106,
      "significant": 1107,
      "establish": 1108,
      "den": 1109,
      "during": 1110,
      "nat": 1111,
      "infr": 1112,
      "astruct": 1113,
      "tra": 1114,
      "wide": 1115,
      "india": 1116,
      "higher": 1117,
      "increase": 1118,
      "half": 1119,
      "infrastruct": 1120,
      "cover": 1121,
      "found": 1122,
      "run": 1123,
      "wr": 1124,
      "ances": 1125,
      "meas": 1126,
      "costs": 1127,
      "middle": 1128,
      "sions": 1129,
      "sav": 1130,
      "ying": 1131,
      "never": 1132,
      "share": 1133,
      "russia": 1134,
      "infrastructure": 1135,
      "best": 1136,
      "fur": 1137,
      "hard": 1138,
      "recogn": 1139,
      "ata": 1140,
      "model": 1141,
      "protect": 1142,
      "wever": 1143,
      "others": 1144,
      "ficult": 1145,
      "however": 1146,
      "difficult": 1147,
      "remains": 1148,
      "institutions": 1149,
      "partners": 1150,
      "western": 1151,
      "find": 1152,
      "lack": 1153,
      "non": 1154,
      "repres": 1155,
      "itive": 1156,
      "oup": 1157,
      "role": 1158,
      "why": 1159,
      "negot": 1160,
      "weak": 1161,
      "making": 1162,
      "posed": 1163,
      "decis": 1164,
      "effective": 1165,
      "according": 1166,
      "negoti": 1167,
      "sed": 1168,
      "water": 1169,
      "thir": 1170,
      "vere": 1171,
      "char": 1172,
      "confl": 1173,
      "pros": 1174,
      "life": 1175,
      "head": 1176,
      "ains": 1177,
      "show": 1178,
      "place": 1179,
      "whether": 1180,
      "integr": 1181,
      "called": 1182,
      "makers": 1183,
      "israel": 1184,
      "data": 1185,
      "eth": 1186,
      "home": 1187,
      "happ": 1188,
      "mult": 1189,
      "rup": 1190,
      "vious": 1191,
      "argu": 1192,
      "moder": 1193,
      "create": 1194,
      "nations": 1195,
      "continue": 1196,
      "systems": 1197,
      "compet": 1198,
      "cit": 1199,
      "east": 1200,
      "ama": 1201,
      "population": 1202,
      "official": 1203,
      "control": 1204,
      "bers": 1205,
      "ible": 1206,
      "reed": 1207,
      "ened": 1208,
      "imp": 1209,
      "peace": 1210,
      "means": 1211,
      "group": 1212,
      "viol": 1213,
      "aw": 1214,
      "face": 1215,
      "ner": 1216,
      "comple": 1217,
      "within": 1218,
      "pite": 1219,
      "ars": 1220,
      "rich": 1221,
      "ained": 1222,
      "cooper": 1223,
      "countrys": 1224,
      "prices": 1225,
      "society": 1226,
      "bur": 1227,
      "ium": 1228,
      "mor": 1229,
      "say": 1230,
      "tun": 1231,
      "ties": 1232,
      "thus": 1233,
      "ensure": 1234,
      "almost": 1235,
      "pover": 1236,
      "pri": 1237,
      "party": 1238,
      "community": 1239,
      "developing": 1240,
      "despite": 1241,
      "greater": 1242,
      "require": 1243,
      "benefits": 1244,
      "small": 1245,
      "ele": 1246,
      "gin": 1247,
      "gical": 1248,
      "scho": 1249,
      "least": 1250,
      "depend": 1251,
      "across": 1252,
      "iran": 1253,
      "estic": 1254,
      "position": 1255,
      "possible": 1256,
      "aids": 1257,
      "productivity": 1258,
      "school": 1259,
      "dan": 1260,
      "enge": 1261,
      "isl": 1262,
      "itions": 1263,
      "toward": 1264,
      "experi": 1265,
      "uced": 1266,
      "rise": 1267,
      "requi": 1268,
      "consider": 1269,
      "initi": 1270,
      "ec": 1271,
      "fu": 1272,
      "zone": 1273,
      "anced": 1274,
      "century": 1275,
      "ficient": 1276,
      "question": 1277,
      "ever": 1278,
      "pes": 1279,
      "eral": 1280,
      "aged": 1281,
      "aps": 1282,
      "commun": 1283,
      "continent": 1284,
      "seems": 1285,
      "further": 1286,
      "30": 1287,
      "cle": 1288,
      "hand": 1289,
      "you": 1290,
      "step": 1291,
      "necess": 1292,
      "pris": 1293,
      "generation": 1294,
      "technology": 1295,
      "ling": 1296,
      "ton": 1297,
      "inform": 1298,
      "ators": 1299,
      "local": 1300,
      "increasingly": 1301,
      "slow": 1302,
      "enough": 1303,
      "ited": 1304,
      "toge": 1305,
      "contr": 1306,
      "imin": 1307,
      "aren": 1308,
      "rence": 1309,
      "germany": 1310,
      "minister": 1311,
      "different": 1312,
      "together": 1313,
      "ned": 1314,
      "arab": 1315,
      "stren": 1316,
      "aging": 1317,
      "idence": 1318,
      "politics": 1319,
      "workers": 1320,
      "policymakers": 1321,
      "provide": 1322,
      "ministr": 1323,
      "emerging": 1324,
      "third": 1325,
      "ft": 1326,
      "ked": 1327,
      "ming": 1328,
      "ord": 1329,
      "contribut": 1330,
      "areas": 1331,
      "regional": 1332,
      "sib": 1333,
      "leadership": 1334,
      "standard": 1335,
      "election": 1336,
      "times": 1337,
      "streng": 1338,
      "ler": 1339,
      "ths": 1340,
      "ont": 1341,
      "ening": 1342,
      "allow": 1343,
      "deal": 1344,
      "balance": 1345,
      "ought": 1346,
      "ield": 1347,
      "value": 1348,
      "domestic": 1349,
      "aver": 1350,
      "civ": 1351,
      "ear": 1352,
      "hing": 1353,
      "line": 1354,
      "report": 1355,
      "ond": 1356,
      "rop": 1357,
      "improv": 1358,
      "prime": 1359,
      "agement": 1360,
      "boo": 1361,
      "brit": 1362,
      "understand": 1363,
      "liberal": 1364,
      "poverty": 1365,
      "az": 1366,
      "mind": 1367,
      "til": 1368,
      "ick": 1369,
      "sug": 1370,
      "finance": 1371,
      "bring": 1372,
      "spending": 1373,
      "histor": 1374,
      "ai": 1375,
      "four": 1376,
      "mer": 1377,
      "mill": 1378,
      "rap": 1379,
      "tru": 1380,
      "working": 1381,
      "serious": 1382,
      "ption": 1383,
      "increased": 1384,
      "rising": 1385,
      "longer": 1386,
      "000": 1387,
      "todays": 1388,
      "challenge": 1389,
      "reflect": 1390,
      "particularly": 1391,
      "green": 1392,
      "little": 1393,
      "citiz": 1394,
      "fuel": 1395,
      "civil": 1396,
      "ot": 1397,
      "issions": 1398,
      "star": 1399,
      "look": 1400,
      "ceed": 1401,
      "comb": 1402,
      "pose": 1403,
      "open": 1404,
      "manu": 1405,
      "europes": 1406,
      "ieve": 1407,
      "plement": 1408,
      "opportunity": 1409,
      "modern": 1410,
      "mass": 1411,
      "pal": 1412,
      "pred": 1413,
      "ration": 1414,
      "atives": 1415,
      "bey": 1416,
      "wealth": 1417,
      "achieve": 1418,
      "largest": 1419,
      "extre": 1420,
      "issues": 1421,
      "opportunities": 1422,
      "reason": 1423,
      "broad": 1424,
      "him": 1425,
      "men": 1426,
      "oil": 1427,
      "ude": 1428,
      "agend": 1429,
      "maint": 1430,
      "plic": 1431,
      "reduce": 1432,
      "eurozone": 1433,
      "common": 1434,
      "former": 1435,
      "ensive": 1436,
      "provid": 1437,
      "recently": 1438,
      "levels": 1439,
      "afghanistan": 1440,
      "rapid": 1441,
      "flow": 1442,
      "ven": 1443,
      "ants": 1444,
      "ention": 1445,
      "sequ": 1446,
      "developed": 1447,
      "region": 1448,
      "scient": 1449,
      "manufact": 1450,
      "beyond": 1451,
      "tom": 1452,
      "stit": 1453,
      "start": 1454,
      "administr": 1455,
      "hope": 1456,
      "fair": 1457,
      "attack": 1458,
      "monetary": 1459,
      "price": 1460,
      "agreement": 1461,
      "environmental": 1462,
      "each": 1463,
      "gic": 1464,
      "haps": 1465,
      "ier": 1466,
      "ls": 1467,
      "light": 1468,
      "rul": 1469,
      "west": 1470,
      "youth": 1471,
      "ines": 1472,
      "republic": 1473,
      "itself": 1474,
      "stat": 1475,
      "olution": 1476,
      "mob": 1477,
      "iving": 1478,
      "perhaps": 1479,
      "governance": 1480,
      "selves": 1481,
      "deficit": 1482,
      "number": 1483,
      "ordin": 1484,
      "bud": 1485,
      "cult": 1486,
      "five": 1487,
      "mic": 1488,
      "saf": 1489,
      "return": 1490,
      "ently": 1491,
      "left": 1492,
      "fortun": 1493,
      "che": 1494,
      "super": 1495,
      "implement": 1496,
      "mod": 1497,
      "iger": 1498,
      "lives": 1499,
      "individ": 1500,
      "chinas": 1501,
      "investments": 1502,
      "simply": 1503,
      "spec": 1504,
      "programs": 1505,
      "concern": 1506,
      "citizens": 1507,
      "early": 1508,
      "gree": 1509,
      "ither": 1510,
      "niger": 1511,
      "pan": 1512,
      "ang": 1513,
      "total": 1514,
      "secre": 1515,
      "tract": 1516,
      "unemployment": 1517,
      "ended": 1518,
      "coal": 1519,
      "2008": 1520,
      "technologies": 1521,
      "reforms": 1522,
      "skill": 1523,
      "uk": 1524,
      "ences": 1525,
      "aster": 1526,
      "sus": 1527,
      "terms": 1528,
      "ends": 1529,
      "regard": 1530,
      "paign": 1531,
      "campaign": 1532,
      "similar": 1533,
      "cooperation": 1534,
      "aq": 1535,
      "fight": 1536,
      "uation": 1537,
      "ined": 1538,
      "ones": 1539,
      "ats": 1540,
      "alone": 1541,
      "anda": 1542,
      "asia": 1543,
      "def": 1544,
      "ched": 1545,
      "willing": 1546,
      "prevent": 1547,
      "person": 1548,
      "agenda": 1549,
      "ctr": 1550,
      "eve": 1551,
      "hol": 1552,
      "sour": 1553,
      "africans": 1554,
      "pract": 1555,
      "curren": 1556,
      "regions": 1557,
      "capac": 1558,
      "corpor": 1559,
      "japanese": 1560,
      "democratic": 1561,
      "strategy": 1562,
      "innovation": 1563,
      "conflict": 1564,
      "ix": 1565,
      "nam": 1566,
      "tem": 1567,
      "ash": 1568,
      "entire": 1569,
      "deter": 1570,
      "deli": 1571,
      "sever": 1572,
      "aining": 1573,
      "plac": 1574,
      "class": 1575,
      "americans": 1576,
      "france": 1577,
      "leading": 1578,
      "investors": 1579,
      "fully": 1580,
      "members": 1581,
      "science": 1582,
      "agriculture": 1583,
      "saving": 1584,
      "prior": 1585,
      "dou": 1586,
      "ead": 1587,
      "freed": 1588,
      "pus": 1589,
      "ry": 1590,
      "sa": 1591,
      "inc": 1592,
      "ices": 1593,
      "deep": 1594,
      "forces": 1595,
      "iraq": 1596,
      "post": 1597,
      "claim": 1598,
      "diseas": 1599,
      "obama": 1600,
      "turkey": 1601,
      "funda": 1602,
      "funds": 1603,
      "history": 1604,
      "represent": 1605,
      "safe": 1606,
      "fortunately": 1607,
      "10": 1608,
      "io": 1609,
      "lat": 1610,
      "ru": 1611,
      "encour": 1612,
      "ilities": 1613,
      "ute": 1614,
      "using": 1615,
      "exper": 1616,
      "living": 1617,
      "shif": 1618,
      "transform": 1619,
      "ledge": 1620,
      "expand": 1621,
      "issue": 1622,
      "advanced": 1623,
      "farmers": 1624,
      "expected": 1625,
      "scal": 1626,
      "tes": 1627,
      "promo": 1628,
      "ively": 1629,
      "prim": 1630,
      "created": 1631,
      "communities": 1632,
      "raw": 1633,
      "financing": 1634,
      "general": 1635,
      "production": 1636,
      "goods": 1637,
      "effects": 1638,
      "family": 1639,
      "break": 1640,
      "federal": 1641,
      "believe": 1642,
      "impact": 1643,
      "violence": 1644,
      "electr": 1645,
      "freedom": 1646,
      "dist": 1647,
      "paren": 1648,
      "test": 1649,
      "want": 1650,
      "rece": 1651,
      "once": 1652,
      "acc": 1653,
      "begin": 1654,
      "constit": 1655,
      "keep": 1656,
      "anti": 1657,
      "lower": 1658,
      "front": 1659,
      "full": 1660,
      "solutions": 1661,
      "period": 1662,
      "consumption": 1663,
      "agricultural": 1664,
      "inflation": 1665,
      "islam": 1666,
      "capacity": 1667,
      "several": 1668,
      "60": 1669,
      "sit": 1670,
      "sch": 1671,
      "ense": 1672,
      "iting": 1673,
      "adop": 1674,
      "goals": 1675,
      "invol": 1676,
      "ucing": 1677,
      "fri": 1678,
      "although": 1679,
      "198": 1680,
      "themselves": 1681,
      "vision": 1682,
      "annual": 1683,
      "measures": 1684,
      "average": 1685,
      "gue": 1686,
      "ham": 1687,
      "incent": 1688,
      "accept": 1689,
      "congress": 1690,
      "consequ": 1691,
      "true": 1692,
      "reser": 1693,
      "estim": 1694,
      "taking": 1695,
      "whose": 1696,
      "decade": 1697,
      "relative": 1698,
      "response": 1699,
      "carbon": 1700,
      "effort": 1701,
      "strategic": 1702,
      "household": 1703,
      "partnership": 1704,
      "prosper": 1705,
      "requires": 1706,
      "came": 1707,
      "dam": 1708,
      "fav": 1709,
      "iev": 1710,
      "sc": 1711,
      "icians": 1712,
      "enter": 1713,
      "until": 1714,
      "agno": 1715,
      "ground": 1716,
      "corrup": 1717,
      "values": 1718,
      "domin": 1719,
      "democracy": 1720,
      "danger": 1721,
      "necessary": 1722,
      "boost": 1723,
      "manufacturing": 1724,
      "dig": 1725,
      "hun": 1726,
      "mom": 1727,
      "mus": 1728,
      "ox": 1729,
      "stop": 1730,
      "aring": 1731,
      "ask": 1732,
      "ford": 1733,
      "conf": 1734,
      "uncertain": 1735,
      "emissions": 1736,
      "ival": 1737,
      "izations": 1738,
      "banking": 1739,
      "else": 1740,
      "changes": 1741,
      "attention": 1742,
      "subs": 1743,
      "diagno": 1744,
      "interests": 1745,
      "knowledge": 1746,
      "kore": 1747,
      "environment": 1748,
      "projects": 1749,
      "think": 1750,
      "sibility": 1751,
      "budget": 1752,
      "iop": 1753,
      "kes": 1754,
      "vul": 1755,
      "atory": 1756,
      "always": 1757,
      "construct": 1758,
      "uses": 1759,
      "affect": 1760,
      "crimin": 1761,
      "evidence": 1762,
      "ished": 1763,
      "continents": 1764,
      "firms": 1765,
      "cipl": 1766,
      "collect": 1767,
      "member": 1768,
      "close": 1769,
      "ethiop": 1770,
      "groups": 1771,
      "done": 1772,
      "hind": 1773,
      "mun": 1774,
      "nal": 1775,
      "tren": 1776,
      "ories": 1777,
      "ission": 1778,
      "stim": 1779,
      "lost": 1780,
      "cession": 1781,
      "avail": 1782,
      "2015": 1783,
      "funding": 1784,
      "medi": 1785,
      "conditions": 1786,
      "iveness": 1787,
      "particip": 1788,
      "legit": 1789,
      "migration": 1790,
      "standards": 1791,
      "palest": 1792,
      "administration": 1793,
      "moment": 1794,
      "stimul": 1795,
      "11": 1796,
      "40": 1797,
      "blo": 1798,
      "dol": 1799,
      "eting": 1800,
      "ped": 1801,
      "sw": 1802,
      "san": 1803,
      "said": 1804,
      "wise": 1805,
      "ream": 1806,
      "conne": 1807,
      "nearly": 1808,
      "essential": 1809,
      "here": 1810,
      "sovere": 1811,
      "ify": 1812,
      "pread": 1813,
      "previous": 1814,
      "drug": 1815,
      "2014": 1816,
      "relation": 1817,
      "japans": 1818,
      "demon": 1819,
      "particular": 1820,
      "promise": 1821,
      "terrorism": 1822,
      "scale": 1823,
      "dollar": 1824,
      "sovereign": 1825,
      "bol": 1826,
      "bod": 1827,
      "lon": 1828,
      "nar": 1829,
      "rain": 1830,
      "ued": 1831,
      "defin": 1832,
      "abo": 1833,
      "respect": 1834,
      "weap": 1835,
      "exist": 1836,
      "lif": 1837,
      "live": 1838,
      "works": 1839,
      "gets": 1840,
      "management": 1841,
      "rench": 1842,
      "owing": 1843,
      "popular": 1844,
      "elections": 1845,
      "borrow": 1846,
      "university": 1847,
      "information": 1848,
      "predict": 1849,
      "skills": 1850,
      "connect": 1851,
      "ake": 1852,
      "bilateral": 1853,
      "gas": 1854,
      "hy": 1855,
      "ired": 1856,
      "kind": 1857,
      "yor": 1858,
      "anal": 1859,
      "rod": 1860,
      "constr": 1861,
      "abs": 1862,
      "usion": 1863,
      "urban": 1864,
      "activ": 1865,
      "cru": 1866,
      "indic": 1867,
      "pressure": 1868,
      "finally": 1869,
      "frame": 1870,
      "produce": 1871,
      "dram": 1872,
      "laun": 1873,
      "largely": 1874,
      "viet": 1875,
      "makes": 1876,
      "sense": 1877,
      "influ": 1878,
      "profess": 1879,
      "clean": 1880,
      "flows": 1881,
      "vulner": 1882,
      "relationship": 1883,
      "city": 1884,
      "pass": 1885,
      "var": 1886,
      "vol": 1887,
      "rele": 1888,
      "ensus": 1889,
      "stability": 1890,
      "sec": 1891,
      "trillion": 1892,
      "proper": 1893,
      "exports": 1894,
      "grad": 1895,
      "grap": 1896,
      "doing": 1897,
      "introd": 1898,
      "twent": 1899,
      "risks": 1900,
      "powerful": 1901,
      "ification": 1902,
      "media": 1903,
      "conduct": 1904,
      "huge": 1905,
      "known": 1906,
      "deficits": 1907,
      "organizations": 1908,
      "traditional": 1909,
      "pursu": 1910,
      "extreme": 1911,
      "fundamental": 1912,
      "york": 1913,
      "draw": 1914,
      "french": 1915,
      "gen": 1916,
      "hi": 1917,
      "ients": 1918,
      "late": 1919,
      "mand": 1920,
      "ron": 1921,
      "vast": 1922,
      "wers": 1923,
      "rely": 1924,
      "recession": 1925,
      "era": 1926,
      "offer": 1927,
      "ili": 1928,
      "expl": 1929,
      "polar": 1930,
      "ender": 1931,
      "mark": 1932,
      "politicians": 1933,
      "adequ": 1934,
      "relations": 1935,
      "design": 1936,
      "solid": 1937,
      "subst": 1938,
      "consensus": 1939,
      "north": 1940,
      "commitment": 1941,
      "range": 1942,
      "organization": 1943,
      "sufficient": 1944,
      "integration": 1945,
      "complex": 1946,
      "strengthen": 1947,
      "currency": 1948,
      "bad": 1949,
      "fast": 1950,
      "sis": 1951,
      "alger": 1952,
      "arian": 1953,
      "behind": 1954,
      "older": 1955,
      "nothing": 1956,
      "afford": 1957,
      "thern": 1958,
      "ived": 1959,
      "feat": 1960,
      "press": 1961,
      "achiev": 1962,
      "serv": 1963,
      "forest": 1964,
      "rais": 1965,
      "utional": 1966,
      "lands": 1967,
      "special": 1968,
      "stronger": 1969,
      "favor": 1970,
      "london": 1971,
      "bs": 1972,
      "cies": 1973,
      "ith": 1974,
      "ky": 1975,
      "os": 1976,
      "side": 1977,
      "ald": 1978,
      "itable": 1979,
      "outs": 1980,
      "acade": 1981,
      "wee": 1982,
      "excl": 1983,
      "soon": 1984,
      "teach": 1985,
      "quick": 1986,
      "meeting": 1987,
      "center": 1988,
      "positive": 1989,
      "supply": 1990,
      "german": 1991,
      "197": 1992,
      "industry": 1993,
      "ugg": 1994,
      "trumps": 1995,
      "treaty": 1996,
      "decision": 1997,
      "suggest": 1998,
      "millions": 1999,
      "rules": 2000,
      "nigeria": 2001,
      "secretary": 2002,
      "weapons": 2003,
      "%,": 2004,
      "divid": 2005,
      "mut": 2006,
      "reli": 2007,
      "altern": 2008,
      "severe": 2009,
      "chance": 2010,
      "verse": 2011,
      "commod": 2012,
      "poin": 2013,
      "fear": 2014,
      "antic": 2015,
      "putin": 2016,
      "solution": 2017,
      "voters": 2018,
      "coll": 2019,
      "currently": 2020,
      "sectors": 2021,
      "things": 2022,
      "legal": 2023,
      "path": 2024,
      "benefit": 2025,
      "revolution": 2026,
      "study": 2027,
      "students": 2028,
      "building": 2029,
      "covery": 2030,
      "initiative": 2031,
      "truth": 2032,
      "sahar": 2033,
      "korea": 2034,
      "above": 2035,
      "25": 2036,
      "ath": 2037,
      "bill": 2038,
      "dy": 2039,
      "sar": 2040,
      "vacc": 2041,
      "win": 2042,
      "acce": 2043,
      "forced": 2044,
      "mot": 2045,
      "prob": 2046,
      "amoun": 2047,
      "neigh": 2048,
      "export": 2049,
      "worse": 2050,
      "quar": 2051,
      "feel": 2052,
      "outcomes": 2053,
      "news": 2054,
      "commission": 2055,
      "goal": 2056,
      "inequality": 2057,
      "ideas": 2058,
      "2017": 2059,
      "compared": 2060,
      "instead": 2061,
      "medic": 2062,
      "reven": 2063,
      "matter": 2064,
      "suffer": 2065,
      "1990s": 2066,
      "multilateral": 2067,
      "officials": 2068,
      "experience": 2069,
      "improved": 2070,
      "massive": 2071,
      "rule": 2072,
      "prosperity": 2073,
      "subsid": 2074,
      "palestin": 2075,
      "15": 2076,
      "cat": 2077,
      "equal": 2078,
      "jour": 2079,
      "nt": 2080,
      "sto": 2081,
      "along": 2082,
      "began": 2083,
      "amb": 2084,
      "counter": 2085,
      "having": 2086,
      "poll": 2087,
      "washing": 2088,
      "worldwide": 2089,
      "pression": 2090,
      "tail": 2091,
      "brid": 2092,
      "lling": 2093,
      "obvious": 2094,
      "highly": 2095,
      "justice": 2096,
      "related": 2097,
      "imately": 2098,
      "products": 2099,
      "donors": 2100,
      "succeed": 2101,
      "lines": 2102,
      "failure": 2103,
      "clearly": 2104,
      "moral": 2105,
      "communic": 2106,
      "push": 2107,
      "18": 2108,
      "ament": 2109,
      "bro": 2110,
      "dest": 2111,
      "eus": 2112,
      "field": 2113,
      "gl": 2114,
      "hic": 2115,
      "ured": 2116,
      "really": 2117,
      "ator": 2118,
      "attract": 2119,
      "arily": 2120,
      "let": 2121,
      "loss": 2122,
      "resol": 2123,
      "ified": 2124,
      "fered": 2125,
      "indian": 2126,
      "creation": 2127,
      "discus": 2128,
      "disorder": 2129,
      "relig": 2130,
      "additional": 2131,
      "independ": 2132,
      "industries": 2133,
      "structural": 2134,
      "russian": 2135,
      "agreements": 2136,
      "movement": 2137,
      "decline": 2138,
      "wrong": 2139,
      "maintain": 2140,
      "consequences": 2141,
      "washington": 2142,
      "div": 2143,
      "fix": 2144,
      "gor": 2145,
      "mess": 2146,
      "name": 2147,
      "sil": 2148,
      "ze": 2149,
      "insur": 2150,
      "ret": 2151,
      "renew": 2152,
      "orm": 2153,
      "assum": 2154,
      "exchange": 2155,
      "soci": 2156,
      "reduct": 2157,
      "syr": 2158,
      "drive": 2159,
      "transition": 2160,
      "summit": 2161,
      "responsibility": 2162,
      "russi": 2163,
      "failed": 2164,
      "successful": 2165,
      "keny": 2166,
      "meanwhile": 2167,
      "thinking": 2168,
      "authorities": 2169,
      "individual": 2170,
      "corruption": 2171,
      "saharan": 2172,
      "dynam": 2173,
      "bt": 2174,
      "bed": 2175,
      "cil": 2176,
      "cise": 2177,
      "fun": 2178,
      "rw": 2179,
      "rat": 2180,
      "wish": 2181,
      "ination": 2182,
      "asse": 2183,
      "forman": 2184,
      "forward": 2185,
      "unfortunately": 2186,
      "amp": 2187,
      "poo": 2188,
      "held": 2189,
      "heav": 2190,
      "plom": 2191,
      "reducing": 2192,
      "istance": 2193,
      "performan": 2194,
      "parts": 2195,
      "meet": 2196,
      "efficient": 2197,
      "taken": 2198,
      "boom": 2199,
      "leader": 2200,
      "2010": 2201,
      "six": 2202,
      "vict": 2203,
      "diplom": 2204,
      "voc": 2205,
      "ternal": 2206,
      "respond": 2207,
      "results": 2208,
      "democrats": 2209,
      "majority": 2210,
      "month": 2211,
      "occur": 2212,
      "negotiations": 2213,
      "electric": 2214,
      "incentives": 2215,
      "ethiopia": 2216,
      "performance": 2217,
      "70": 2218,
      "gir": 2219,
      "gender": 2220,
      "list": 2221,
      "later": 2222,
      "sof": 2223,
      "ale": 2224,
      "orig": 2225,
      "tou": 2226,
      "argue": 2227,
      "ste": 2228,
      "dep": 2229,
      "seen": 2230,
      "chas": 2231,
      "conv": 2232,
      "convent": 2233,
      "conserv": 2234,
      "imper": 2235,
      "immedi": 2236,
      "ounced": 2237,
      "wel": 2238,
      "powers": 2239,
      "external": 2240,
      "output": 2241,
      "event": 2242,
      "going": 2243,
      "globalization": 2244,
      "peoples": 2245,
      "object": 2246,
      "italy": 2247,
      "crises": 2248,
      "debate": 2249,
      "solar": 2250,
      "helping": 2251,
      "fert": 2252,
      "businesses": 2253,
      "ibility": 2254,
      "advant": 2255,
      "certainly": 2256,
      "target": 2257,
      "reaching": 2258,
      "natural": 2259,
      "argued": 2260,
      "british": 2261,
      "mobil": 2262,
      "source": 2263,
      "disease": 2264,
      "legitim": 2265,
      "substant": 2266,
      "ather": 2267,
      "bom": 2268,
      "ders": 2269,
      "fig": 2270,
      "fem": 2271,
      "give": 2272,
      "mort": 2273,
      "oid": 2274,
      "usu": 2275,
      "rein": 2276,
      "ites": 2277,
      "leav": 2278,
      "sept": 2279,
      "seven": 2280,
      "vered": 2281,
      "bel": 2282,
      "trust": 2283,
      "loo": 2284,
      "ember": 2285,
      "words": 2286,
      "soviet": 2287,
      "opin": 2288,
      "porters": 2289,
      "economists": 2290,
      "ference": 2291,
      "istic": 2292,
      "grand": 2293,
      "audi": 2294,
      "black": 2295,
      "internet": 2296,
      "warming": 2297,
      "hood": 2298,
      "surv": 2299,
      "divers": 2300,
      "woman": 2301,
      "koz": 2302,
      "koso": 2303,
      "service": 2304,
      "joh": 2305,
      "join": 2306,
      "resource": 2307,
      "rants": 2308,
      "limited": 2309,
      "societies": 2310,
      "critic": 2311,
      "authority": 2312,
      "patients": 2313,
      "similarly": 2314,
      "competit": 2315,
      "experien": 2316,
      "scientific": 2317,
      "cheap": 2318,
      "personal": 2319,
      "corporate": 2320,
      "determin": 2321,
      "tests": 2322,
      "elsewhere": 2323,
      "demonstr": 2324,
      "framework": 2325,
      "sarkoz": 2326,
      "origin": 2327,
      "september": 2328,
      "egy": 2329,
      "gains": 2330,
      "hous": 2331,
      "mex": 2332,
      "mist": 2333,
      "mater": 2334,
      "nic": 2335,
      "none": 2336,
      "ses": 2337,
      "sound": 2338,
      "tions": 2339,
      "yield": 2340,
      "enn": 2341,
      "trou": 2342,
      "loc": 2343,
      "usive": 2344,
      "urg": 2345,
      "ially": 2346,
      "parli": 2347,
      "coordin": 2348,
      "strugg": 2349,
      "parties": 2350,
      "economics": 2351,
      "prep": 2352,
      "europeans": 2353,
      "regime": 2354,
      "avoid": 2355,
      "2000": 2356,
      "2009": 2357,
      "productive": 2358,
      "include": 2359,
      "bush": 2360,
      "explo": 2361,
      "borders": 2362,
      "direction": 2363,
      "single": 2364,
      "protection": 2365,
      "attacks": 2366,
      "statist": 2367,
      "situation": 2368,
      "digital": 2369,
      "muslim": 2370,
      "adequate": 2371,
      "mexic": 2372,
      "cup": 2373,
      "either": 2374,
      "fs": 2375,
      "gs": 2376,
      "hib": 2377,
      "jun": 2378,
      "rad": 2379,
      "rural": 2380,
      "save": 2381,
      "wat": 2382,
      "inev": 2383,
      "tool": 2384,
      "beha": 2385,
      "immun": 2386,
      "council": 2387,
      "que": 2388,
      "plies": 2389,
      "prin": 2390,
      "ously": 2391,
      "bot": 2392,
      "increases": 2393,
      "continues": 2394,
      "engine": 2395,
      "reality": 2396,
      "seeking": 2397,
      "emerg": 2398,
      "treatment": 2399,
      "purchas": 2400,
      "prospect": 2401,
      "cultural": 2402,
      "deliver": 2403,
      "shift": 2404,
      "beginning": 2405,
      "stimulus": 2406,
      "probably": 2407,
      "away": 2408,
      "border": 2409,
      "cand": 2410,
      "jan": 2411,
      "mur": 2412,
      "nav": 2413,
      "pak": 2414,
      "sides": 2415,
      "tro": 2416,
      "uary": 2417,
      "repe": 2418,
      "ering": 2419,
      "sea": 2420,
      "below": 2421,
      "loans": 2422,
      "neg": 2423,
      "excess": 2424,
      "geor": 2425,
      "pled": 2426,
      "rences": 2427,
      "mechan": 2428,
      "events": 2429,
      "disput": 2430,
      "board": 2431,
      "book": 2432,
      "frag": 2433,
      "whole": 2434,
      "ultimately": 2435,
      "ension": 2436,
      "spain": 2437,
      "proved": 2438,
      "firm": 2439,
      "basic": 2440,
      "helped": 2441,
      "tali": 2442,
      "cases": 2443,
      "seek": 2444,
      "bipolar": 2445,
      "questions": 2446,
      "regulatory": 2447,
      "barack": 2448,
      "meaning": 2449,
      "industrialization": 2450,
      "migrants": 2451,
      "significantly": 2452,
      "prising": 2453,
      "historical": 2454,
      "concerns": 2455,
      "primary": 2456,
      "friend": 2457,
      "hunger": 2458,
      "available": 2459,
      "acceler": 2460,
      "russias": 2461,
      "fertility": 2462,
      "behavi": 2463,
      "%.": 2464,
      "cu": 2465,
      "cold": 2466,
      "ii": 2467,
      "jud": 2468,
      "sco": 2469,
      "tre": 2470,
      "alli": 2471,
      "ilies": 2472,
      "seed": 2473,
      "becoming": 2474,
      "training": 2475,
      "imes": 2476,
      "moving": 2477,
      "proport": 2478,
      "abilities": 2479,
      "neither": 2480,
      "affair": 2481,
      "except": 2482,
      "opposition": 2483,
      "paris": 2484,
      "present": 2485,
      "augh": 2486,
      "forms": 2487,
      "driven": 2488,
      "basis": 2489,
      "collabor": 2490,
      "donald": 2491,
      "technological": 2492,
      "committed": 2493,
      "families": 2494,
      "appear": 2495,
      "established": 2496,
      "shows": 2497,
      "contrast": 2498,
      "placed": 2499,
      "households": 2500,
      "vulnerable": 2501,
      "relev": 2502,
      "secure": 2503,
      "alternative": 2504,
      "funct": 2505,
      "rwanda": 2506,
      "victory": 2507,
      "kosovo": 2508,
      "egypt": 2509,
      "parliament": 2510,
      "candid": 2511,
      "pakistan": 2512,
      "flo": 2513,
      "frequ": 2514,
      "hit": 2515,
      "ivers": 2516,
      "lan": 2517,
      "mach": 2518,
      "rid": 2519,
      "sou": 2520,
      "spread": 2521,
      "vital": 2522,
      "recomm": 2523,
      "record": 2524,
      "recovery": 2525,
      "ero": 2526,
      "atically": 2527,
      "enorm": 2528,
      "ali": 2529,
      "itarian": 2530,
      "icts": 2531,
      "asian": 2532,
      "associ": 2533,
      "story": 2534,
      "unlikely": 2535,
      "prohib": 2536,
      "compl": 2537,
      "aints": 2538,
      "ays": 2539,
      "tee": 2540,
      "actually": 2541,
      "creating": 2542,
      "pressed": 2543,
      "therefore": 2544,
      "sym": 2545,
      "restric": 2546,
      "2012": 2547,
      "2013": 2548,
      "2016": 2549,
      "continued": 2550,
      "compens": 2551,
      "company": 2552,
      "transport": 2553,
      "factors": 2554,
      "destruct": 2555,
      "ological": 2556,
      "standing": 2557,
      "everywhere": 2558,
      "months": 2559,
      "consumer": 2560,
      "thought": 2561,
      "focused": 2562,
      "appears": 2563,
      "decisions": 2564,
      "initiatives": 2565,
      "improving": 2566,
      "mutual": 2567,
      "syria": 2568,
      "electricity": 2569,
      "john": 2570,
      "behavior": 2571,
      "mag": 2572,
      "sl": 2573,
      "spr": 2574,
      "insp": 2575,
      "theless": 2576,
      "acqu": 2577,
      "became": 2578,
      "advoc": 2579,
      "igno": 2580,
      "iring": 2581,
      "neur": 2582,
      "ided": 2583,
      "kept": 2584,
      "lier": 2585,
      "allies": 2586,
      "reduced": 2587,
      "cancer": 2588,
      "distribut": 2589,
      "iple": 2590,
      "preced": 2591,
      "preneur": 2592,
      "kingdom": 2593,
      "fran": 2594,
      "avi": 2595,
      "serve": 2596,
      "lesson": 2597,
      "learning": 2598,
      "turning": 2599,
      "suring": 2600,
      "descr": 2601,
      "emphas": 2602,
      "greatest": 2603,
      "roughly": 2604,
      "vote": 2605,
      "easy": 2606,
      "seemed": 2607,
      "territ": 2608,
      "joint": 2609,
      "studies": 2610,
      "critical": 2611,
      "widely": 2612,
      "foundation": 2613,
      "recognize": 2614,
      "required": 2615,
      "britain": 2616,
      "providing": 2617,
      "practices": 2618,
      "parents": 2619,
      "receive": 2620,
      "schol": 2621,
      "uncertainty": 2622,
      "construction": 2623,
      "collective": 2624,
      "quickly": 2625,
      "bridge": 2626,
      "mechanism": 2627,
      "enormous": 2628,
      "80": 2629,
      "bust": 2630,
      "batt": 2631,
      "cir": 2632,
      "cul": 2633,
      "dict": 2634,
      "fare": 2635,
      "hiv": 2636,
      "mad": 2637,
      "mber": 2638,
      "pack": 2639,
      "ring": 2640,
      "sent": 2641,
      "tend": 2642,
      "uals": 2643,
      "xim": 2644,
      "repreneur": 2645,
      "enable": 2646,
      "entrepreneur": 2647,
      "lever": 2648,
      "ilt": 2649,
      "acter": 2650,
      "accur": 2651,
      "agen": 2652,
      "agreed": 2653,
      "estate": 2654,
      "tele": 2655,
      "actions": 2656,
      "parad": 2657,
      "met": 2658,
      "prev": 2659,
      "police": 2660,
      "changing": 2661,
      "idea": 2662,
      "larger": 2663,
      "surve": 2664,
      "presidential": 2665,
      "generate": 2666,
      "talks": 2667,
      "planet": 2668,
      "caused": 2669,
      "liter": 2670,
      "following": 2671,
      "universities": 2672,
      "writ": 2673,
      "steps": 2674,
      "rapidly": 2675,
      "status": 2676,
      "experts": 2677,
      "reserve": 2678,
      "damage": 2679,
      "trend": 2680,
      "influence": 2681,
      "graphic": 2682,
      "introduced": 2683,
      "pollution": 2684,
      "material": 2685,
      "($": 2686,
      "100": 2687,
      "45": 2688,
      "abe": 2689,
      "cities": 2690,
      "da": 2691,
      "ered": 2692,
      "fill": 2693,
      "gun": 2694,
      "gain": 2695,
      "giving": 2696,
      "hop": 2697,
      "iency": 2698,
      "pain": 2699,
      "round": 2700,
      "sun": 2701,
      "smo": 2702,
      "size": 2703,
      "won": 2704,
      "thod": 2705,
      "rect": 2706,
      "stag": 2707,
      "concl": 2708,
      "unless": 2709,
      "imports": 2710,
      "lose": 2711,
      "adjust": 2712,
      "compre": 2713,
      "ague": 2714,
      "empt": 2715,
      "opium": 2716,
      "shar": 2717,
      "uster": 2718,
      "answer": 2719,
      "plans": 2720,
      "discipl": 2721,
      "partly": 2722,
      "obam": 2723,
      "typ": 2724,
      "produc": 2725,
      "hosp": 2726,
      "surpl": 2727,
      "mission": 2728,
      "supported": 2729,
      "simple": 2730,
      "took": 2731,
      "responsible": 2732,
      "visit": 2733,
      "everyone": 2734,
      "limit": 2735,
      "biggest": 2736,
      "equally": 2737,
      "effectively": 2738,
      "character": 2739,
      "communist": 2740,
      "ordinary": 2741,
      "returns": 2742,
      "greece": 2743,
      "priority": 2744,
      "transformation": 2745,
      "islamic": 2746,
      "points": 2747,
      "palestinian": 2748,
      "poorest": 2749,
      "advantage": 2750,
      "legitimacy": 2751,
      "opinion": 2752,
      "sarkozy": 2753,
      "taliban": 2754,
      "proportion": 2755,
      "relevant": 2756,
      "compreh": 2757,
      "ahead": 2758,
      "auster": 2759,
      "crop": 2760,
      "dream": 2761,
      "dgs": 2762,
      "fers": 2763,
      "game": 2764,
      "mac": 2765,
      "mine": 2766,
      "reve": 2767,
      "algor": 2768,
      "ands": 2769,
      "lying": 2770,
      "conference": 2771,
      "imf": 2772,
      "impossible": 2773,
      "propos": 2774,
      "abil": 2775,
      "aggress": 2776,
      "extra": 2777,
      "shared": 2778,
      "shoc": 2779,
      "teen": 2780,
      "izes": 2781,
      "mel": 2782,
      "stri": 2783,
      "discrimin": 2784,
      "lled": 2785,
      "llig": 2786,
      "something": 2787,
      "changed": 2788,
      "supposed": 2789,
      "raise": 2790,
      "undermin": 2791,
      "intellig": 2792,
      "assess": 2793,
      "learn": 2794,
      "2011": 2795,
      "surprising": 2796,
      "factor": 2797,
      "engagement": 2798,
      "settle": 2799,
      "consist": 2800,
      "getting": 2801,
      "dont": 2802,
      "expans": 2803,
      "harv": 2804,
      "legisl": 2805,
      "strategies": 2806,
      "uganda": 2807,
      "ysis": 2808,
      "consumers": 2809,
      "targets": 2810,
      "belief": 2811,
      "terrorists": 2812,
      "recognition": 2813,
      "competition": 2814,
      "millenn": 2815,
      "provided": 2816,
      "superconduct": 2817,
      "specific": 2818,
      "defense": 2819,
      "doubt": 2820,
      "estimated": 2821,
      "estimates": 2822,
      "sanct": 2823,
      "dollars": 2824,
      "crucial": 2825,
      "dramatically": 2826,
      "collap": 2827,
      "amount": 2828,
      "quarter": 2829,
      "revenues": 2830,
      "stock": 2831,
      "religious": 2832,
      "competitiveness": 2833,
      "radical": 2834,
      "affairs": 2835,
      "flood": 2836,
      "hospital": 2837,
      "austerity": 2838,
      "algorith": 2839,
      "bul": 2840,
      "bure": 2841,
      "cast": 2842,
      "ded": 2843,
      "faster": 2844,
      "llect": 2845,
      "rist": 2846,
      "race": 2847,
      "sha": 2848,
      "wo": 2849,
      "enh": 2850,
      "roy": 2851,
      "dece": 2852,
      "deval": 2853,
      "track": 2854,
      "lot": 2855,
      "white": 2856,
      "mother": 2857,
      "comput": 2858,
      "maxim": 2859,
      "heart": 2860,
      "ops": 2861,
      "crime": 2862,
      "persu": 2863,
      "prise": 2864,
      "indias": 2865,
      "meant": 2866,
      "eful": 2867,
      "aug": 2868,
      "precise": 2869,
      "intellect": 2870,
      "putins": 2871,
      "father": 2872,
      "guar": 2873,
      "technical": 2874,
      "throughout": 2875,
      "sustained": 2876,
      "sustainability": 2877,
      "normal": 2878,
      "choice": 2879,
      "taxes": 2880,
      "directly": 2881,
      "matters": 2882,
      "tradition": 2883,
      "profound": 2884,
      "bond": 2885,
      "regulation": 2886,
      "gests": 2887,
      "followed": 2888,
      "travel": 2889,
      "models": 2890,
      "conflicts": 2891,
      "happen": 2892,
      "prison": 2893,
      "earlier": 2894,
      "liberalization": 2895,
      "suggests": 2896,
      "scientists": 2897,
      "republicans": 2898,
      "panel": 2899,
      "ukrain": 2900,
      "temper": 2901,
      "encourage": 2902,
      "promoting": 2903,
      "adopted": 2904,
      "diagnosis": 2905,
      "launched": 2906,
      "outside": 2907,
      "independent": 2908,
      "insurance": 2909,
      "reduction": 2910,
      "dynamic": 2911,
      "expansion": 2912,
      "bound": 2913,
      "drop": 2914,
      "eg": 2915,
      "gap": 2916,
      "ior": 2917,
      "lu": 2918,
      "ping": 2919,
      "sens": 2920,
      "tt": 2921,
      "wants": 2922,
      "ony": 2923,
      "aled": 2924,
      "arrange": 2925,
      "room": 2926,
      "lebr": 2927,
      "sex": 2928,
      "christ": 2929,
      "confront": 2930,
      "unions": 2931,
      "whom": 2932,
      "adap": 2933,
      "celebr": 2934,
      "overall": 2935,
      "porary": 2936,
      "merely": 2937,
      "commer": 2938,
      "ieth": 2939,
      "intervent": 2940,
      "developments": 2941,
      "upon": 2942,
      "spur": 2943,
      "space": 2944,
      "undermine": 2945,
      "lessons": 2946,
      "minor": 2947,
      "minim": 2948,
      "wars": 2949,
      "unders": 2950,
      "2001": 2951,
      "host": 2952,
      "cyber": 2953,
      "transparen": 2954,
      "debts": 2955,
      "vice": 2956,
      "importance": 2957,
      "useful": 2958,
      "harm": 2959,
      "announced": 2960,
      "institutional": 2961,
      "office": 2962,
      "viewed": 2963,
      "aimed": 2964,
      "cuts": 2965,
      "running": 2966,
      "measure": 2967,
      "azil": 2968,
      "individuals": 2969,
      "safety": 2970,
      "latest": 2971,
      "confidence": 2972,
      "analysis": 2973,
      "academic": 2974,
      "suffering": 2975,
      "eventually": 2976,
      "leaving": 2977,
      "statistics": 2978,
      "bottom": 2979,
      "southern": 2980,
      "spring": 2981,
      "prevail": 2982,
      "comprehensive": 2983,
      "bureau": 2984,
      "temperat": 2985,
      "12": 2986,
      "aths": 2987,
      "eli": 2988,
      "eight": 2989,
      "gul": 2990,
      "ju": 2991,
      "lending": 2992,
      "nine": 2993,
      "rig": 2994,
      "sess": 2995,
      "tor": 2996,
      "tly": 2997,
      "ture": 2998,
      "tack": 2999,
      "vill": 3000,
      "ining": 3001,
      "anger": 3002,
      "replace": 3003,
      "atl": 3004,
      "itious": 3005,
      "aria": 3006,
      "arms": 3007,
      "assu": 3008,
      "offered": 3009,
      "stress": 3010,
      "stream": 3011,
      "depart": 3012,
      "immigration": 3013,
      "area": 3014,
      "pet": 3015,
      "embr": 3016,
      "shia": 3017,
      "renmin": 3018,
      "2030": 3019,
      "core": 3020,
      "margin": 3021,
      "likewise": 3022,
      "brazil": 3023,
      "idered": 3024,
      "spend": 3025,
      "ishing": 3026,
      "correct": 3027,
      "assistance": 3028,
      "anyone": 3029,
      "2004": 3030,
      "2007": 3031,
      "victim": 3032,
      "solve": 3033,
      "talent": 3034,
      "considered": 3035,
      "holders": 3036,
      "link": 3037,
      "demands": 3038,
      "reasons": 3039,
      "occup": 3040,
      "cape": 3041,
      "facing": 3042,
      "facilit": 3043,
      "barri": 3044,
      "pointed": 3045,
      "reached": 3046,
      "accountability": 3047,
      "equip": 3048,
      "critics": 3049,
      "universal": 3050,
      "nato": 3051,
      "argument": 3052,
      "ecb": 3053,
      "contrary": 3054,
      "reflects": 3055,
      "diseases": 3056,
      "friends": 3057,
      "participation": 3058,
      "twenty": 3059,
      "designed": 3060,
      "vaccines": 3061,
      "girls": 3062,
      "convin": 3063,
      "immediate": 3064,
      "mortg": 3065,
      "housing": 3066,
      "prepared": 3067,
      "inevitable": 3068,
      "tools": 3069,
      "principl": 3070,
      "obamas": 3071,
      "sanctions": 3072,
      "aut": 3073,
      "dar": 3074,
      "fle": 3075,
      "nu": 3076,
      "pac": 3077,
      "paid": 3078,
      "tan": 3079,
      "tic": 3080,
      "table": 3081,
      "thous": 3082,
      "inct": 3083,
      "ancing": 3084,
      "remark": 3085,
      "theory": 3086,
      "enom": 3087,
      "told": 3088,
      "aries": 3089,
      "leave": 3090,
      "devast": 3091,
      "aceful": 3092,
      "bear": 3093,
      "try": 3094,
      "ational": 3095,
      "iment": 3096,
      "imag": 3097,
      "weather": 3098,
      "herent": 3099,
      "worth": 3100,
      "worst": 3101,
      "overcome": 3102,
      "manage": 3103,
      "actors": 3104,
      "istans": 3105,
      "clin": 3106,
      "waste": 3107,
      "foss": 3108,
      "balances": 3109,
      "effic": 3110,
      "grown": 3111,
      "doct": 3112,
      "bles": 3113,
      "internal": 3114,
      "bert": 3115,
      "served": 3116,
      "investing": 3117,
      "highest": 3118,
      "provides": 3119,
      "capable": 3120,
      "196": 3121,
      "drought": 3122,
      "whereas": 3123,
      "healthy": 3124,
      "added": 3125,
      "remained": 3126,
      "demographic": 3127,
      "buy": 3128,
      "built": 3129,
      "holding": 3130,
      "appropri": 3131,
      "pair": 3132,
      "virt": 3133,
      "born": 3134,
      "plants": 3135,
      "tarif": 3136,
      "trading": 3137,
      "brea": 3138,
      "addressing": 3139,
      "believ": 3140,
      "malaria": 3141,
      "terrorist": 3142,
      "cambridge": 3143,
      "nature": 3144,
      "recognized": 3145,
      "competitive": 3146,
      "complete": 3147,
      "schools": 3148,
      "sources": 3149,
      "promote": 3150,
      "launch": 3151,
      "twentieth": 3152,
      "week": 3153,
      "commodity": 3154,
      "kenya": 3155,
      "soft": 3156,
      "criticism": 3157,
      "mexico": 3158,
      "prospects": 3159,
      "repeated": 3160,
      "george": 3161,
      "precedent": 3162,
      "hopes": 3163,
      "discrimination": 3164,
      "guaran": 3165,
      "fossil": 3166,
      "ah": 3167,
      "bab": 3168,
      "bors": 3169,
      "fire": 3170,
      "hur": 3171,
      "hund": 3172,
      "kar": 3173,
      "lad": 3174,
      "lies": 3175,
      "mil": 3176,
      "moun": 3177,
      "mir": 3178,
      "mdgs": 3179,
      "nc": 3180,
      "pen": 3181,
      "task": 3182,
      "wit": 3183,
      "wed": 3184,
      "your": 3185,
      "ensuring": 3186,
      "alia": 3187,
      "alban": 3188,
      "ster": 3189,
      "stable": 3190,
      "stree": 3191,
      "deals": 3192,
      "depression": 3193,
      "deaths": 3194,
      "ches": 3195,
      "chron": 3196,
      "unlike": 3197,
      "whel": 3198,
      "vert": 3199,
      "ldp": 3200,
      "ables": 3201,
      "arely": 3202,
      "peaceful": 3203,
      "ager": 3204,
      "uries": 3205,
      "ket": 3206,
      "exe": 3207,
      "liqu": 3208,
      "overwhel": 3209,
      "shap": 3210,
      "team": 3211,
      "tered": 3212,
      "outcome": 3213,
      "plat": 3214,
      "activity": 3215,
      "princ": 3216,
      "otherwise": 3217,
      "frustr": 3218,
      "sometimes": 3219,
      "putting": 3220,
      "2005": 3221,
      "2006": 3222,
      "engage": 3223,
      "generations": 3224,
      "addition": 3225,
      "colle": 3226,
      "custom": 3227,
      "extent": 3228,
      "ghana": 3229,
      "structure": 3230,
      "advance": 3231,
      "afghanistans": 3232,
      "mitted": 3233,
      "greens": 3234,
      "faced": 3235,
      "difference": 3236,
      "promises": 3237,
      "promised": 3238,
      "phys": 3239,
      "laws": 3240,
      "burden": 3241,
      "dependent": 3242,
      "reported": 3243,
      "greenhouse": 3244,
      "himself": 3245,
      "breakthrough": 3246,
      "relatively": 3247,
      "body": 3248,
      "narr": 3249,
      "existing": 3250,
      "dramatic": 3251,
      "explain": 3252,
      "neighbor": 3253,
      "tough": 3254,
      "deploy": 3255,
      "conventional": 3256,
      "immunization": 3257,
      "negative": 3258,
      "langu": 3259,
      "associated": 3260,
      "destruction": 3261,
      "typically": 3262,
      "precisely": 3263,
      "intervention": 3264,
      "atlantic": 3265,
      "principles": 3266,
      "efficiency": 3267,
      "hundred": 3268,
      "bir": 3269,
      "du": 3270,
      "due": 3271,
      "eld": 3272,
      "ets": 3273,
      "hon": 3274,
      "hor": 3275,
      "ns": 3276,
      "pi": 3277,
      "smar": 3278,
      "skept": 3279,
      "tight": 3280,
      "treas": 3281,
      "wind": 3282,
      "yes": 3283,
      "enforce": 3284,
      "tober": 3285,
      "arr": 3286,
      "stal": 3287,
      "ley": 3288,
      "dee": 3289,
      "defeat": 3290,
      "death": 3291,
      "tric": 3292,
      "implic": 3293,
      "ada": 3294,
      "moved": 3295,
      "afd": 3296,
      "optim": 3297,
      "fel": 3298,
      "feed": 3299,
      "izum": 3300,
      "ples": 3301,
      "acting": 3302,
      "perman": 3303,
      "clint": 3304,
      "covered": 3305,
      "auto": 3306,
      "goes": 3307,
      "takes": 3308,
      "obst": 3309,
      "thereby": 3310,
      "supporters": 3311,
      "capit": 3312,
      "2002": 3313,
      "days": 3314,
      "transfer": 3315,
      "talk": 3316,
      "setting": 3317,
      "cash": 3318,
      "bankers": 3319,
      "northern": 3320,
      "calls": 3321,
      "koizum": 3322,
      "offers": 3323,
      "limits": 3324,
      "october": 3325,
      "causes": 3326,
      "threatened": 3327,
      "mitt": 3328,
      "movements": 3329,
      "differences": 3330,
      "innovative": 3331,
      "cked": 3332,
      "declared": 3333,
      "bonds": 3334,
      "israeli": 3335,
      "pattern": 3336,
      "savings": 3337,
      "contribute": 3338,
      "fuels": 3339,
      "republican": 3340,
      "temporary": 3341,
      "constitutional": 3342,
      "reserves": 3343,
      "scen": 3344,
      "dangerous": 3345,
      "previously": 3346,
      "motiv": 3347,
      "neighbors": 3348,
      "subsidies": 3349,
      "ambitious": 3350,
      "ratio": 3351,
      "heavily": 3352,
      "experienced": 3353,
      "struggle": 3354,
      "emergence": 3355,
      "describ": 3356,
      "battle": 3357,
      "intelligence": 3358,
      "shape": 3359,
      "bureaucr": 3360,
      "renminbi": 3361,
      "appropriate": 3362,
      "execut": 3363,
      "24": 3364,
      "35": 3365,
      "bid": 3366,
      "cum": 3367,
      "dc": 3368,
      "dro": 3369,
      "die": 3370,
      "equality": 3371,
      "god": 3372,
      "hom": 3373,
      "iers": 3374,
      "lend": 3375,
      "mas": 3376,
      "mix": 3377,
      "nes": 3378,
      "sold": 3379,
      "saudi": 3380,
      "ws": 3381,
      "went": 3382,
      "wides": 3383,
      "zero": 3384,
      "revers": 3385,
      "reject": 3386,
      "online": 3387,
      "enem": 3388,
      "ality": 3389,
      "isol": 3390,
      "tour": 3391,
      "army": 3392,
      "stall": 3393,
      "stabil": 3394,
      "lets": 3395,
      "degree": 3396,
      "acle": 3397,
      "acies": 3398,
      "chem": 3399,
      "chair": 3400,
      "trig": 3401,
      "trip": 3402,
      "mented": 3403,
      "abroad": 3404,
      "compromise": 3405,
      "near": 3406,
      "resto": 3407,
      "resist": 3408,
      "withdraw": 3409,
      "exceed": 3410,
      "empower": 3411,
      "lied": 3412,
      "hear": 3413,
      "options": 3414,
      "sharing": 3415,
      "crip": 3416,
      "canada": 3417,
      "disaster": 3418,
      "final": 3419,
      "commissions": 3420,
      "acknow": 3421,
      "formal": 3422,
      "regimes": 3423,
      "uded": 3424,
      "brought": 3425,
      "elimin": 3426,
      "spent": 3427,
      "sphere": 3428,
      "owners": 3429,
      "worked": 3430,
      "workforce": 3431,
      "learned": 3432,
      "flag": 3433,
      "compon": 3434,
      "guide": 3435,
      "medical": 3436,
      "medium": 3437,
      "subject": 3438,
      "younger": 3439,
      "donor": 3440,
      "educated": 3441,
      "turned": 3442,
      "resulting": 3443,
      "signed": 3444,
      "easier": 3445,
      "committee": 3446,
      "dpj": 3447,
      "ried": 3448,
      "network": 3449,
      "innovations": 3450,
      "views": 3451,
      "partner": 3452,
      "promising": 3453,
      "persist": 3454,
      "perspect": 3455,
      "israels": 3456,
      "happened": 3457,
      "depends": 3458,
      "hands": 3459,
      "necessarily": 3460,
      "allowed": 3461,
      "bringing": 3462,
      "broader": 3463,
      "micro": 3464,
      "coalition": 3465,
      "corporations": 3466,
      "double": 3467,
      "deeply": 3468,
      "claims": 3469,
      "expert": 3470,
      "expanded": 3471,
      "involve": 3472,
      "1989": 3473,
      "partnerships": 3474,
      "trends": 3475,
      "narrow": 3476,
      "defined": 3477,
      "constraints": 3478,
      "volat": 3479,
      "algerias": 3480,
      "achieving": 3481,
      "catast": 3482,
      "assets": 3483,
      "usually": 3484,
      "nonetheless": 3485,
      "naval": 3486,
      "troops": 3487,
      "distribution": 3488,
      "survey": 3489,
      "surplus": 3490,
      "macro": 3491,
      "millennium": 3492,
      "collapse": 3493,
      "marginal": 3494,
      "language": 3495,
      "widespread": 3496,
      "16": 3497,
      "500": 3498,
      "aj": 3499,
      "aip": 3500,
      "austr": 3501,
      "bing": 3502,
      "bia": 3503,
      "card": 3504,
      "dial": 3505,
      "ij": 3506,
      "ni": 3507,
      "nals": 3508,
      "oec": 3509,
      "wa": 3510,
      "wall": 3511,
      "yas": 3512,
      "yle": 3513,
      "ina": 3514,
      "ania": 3515,
      "refe": 3516,
      "remind": 3517,
      "aling": 3518,
      "esity": 3519,
      "oring": 3520,
      "ision": 3521,
      "itation": 3522,
      "itter": 3523,
      "itude": 3524,
      "ari": 3525,
      "ario": 3526,
      "ase": 3527,
      "asset": 3528,
      "oute": 3529,
      "stage": 3530,
      "stead": 3531,
      "robust": 3532,
      "robert": 3533,
      "becomes": 3534,
      "forum": 3535,
      "ching": 3536,
      "unable": 3537,
      "proli": 3538,
      "aba": 3539,
      "opol": 3540,
      "oppos": 3541,
      "plant": 3542,
      "2050": 3543,
      "presid": 3544,
      "marked": 3545,
      "uck": 3546,
      "fron": 3547,
      "leads": 3548,
      "brut": 3549,
      "berlin": 3550,
      "obesity": 3551,
      "ireland": 3552,
      "supports": 3553,
      "underlying": 3554,
      "politically": 3555,
      "produced": 3556,
      "193": 3557,
      "1945": 3558,
      "assad": 3559,
      "decided": 3560,
      "presidents": 3561,
      "deser": 3562,
      "stands": 3563,
      "fertil": 3564,
      "inclusive": 3565,
      "colon": 3566,
      "womens": 3567,
      "lasting": 3568,
      "capitalism": 3569,
      "everything": 3570,
      "employed": 3571,
      "educational": 3572,
      "doesnt": 3573,
      "researchers": 3574,
      "revol": 3575,
      "closer": 3576,
      "faces": 3577,
      "farming": 3578,
      "purpose": 3579,
      "establishing": 3580,
      "establishment": 3581,
      "represents": 3582,
      "integrated": 3583,
      "aware": 3584,
      "started": 3585,
      "starters": 3586,
      "combined": 3587,
      "implemented": 3588,
      "fighting": 3589,
      "entirely": 3590,
      "latin": 3591,
      "1980s": 3592,
      "dominated": 3593,
      "affected": 3594,
      "blood": 3595,
      "borrowing": 3596,
      "activities": 3597,
      "various": 3598,
      "property": 3599,
      "achieved": 3600,
      "raised": 3601,
      "kyo": 3602,
      "journal": 3603,
      "journals": 3604,
      "message": 3605,
      "conservative": 3606,
      "femin": 3607,
      "determined": 3608,
      "recommend": 3609,
      "ignore": 3610,
      "discipline": 3611,
      "legislation": 3612,
      "algorithms": 3613,
      "wood": 3614,
      "december": 3615,
      "barriers": 3616,
      "witness": 3617,
      "chronic": 3618,
      "birth": 3619,
      "elder": 3620,
      "clinton": 3621,
      "capita": 3622,
      "aipac": 3623,
      "oecd": 3624,
      "prolifer": 3625,
      "fertiliz": 3626,
      "bold": 3627,
      "cross": 3628,
      "fif": 3629,
      "gone": 3630,
      "gates": 3631,
      "hab": 3632,
      "hill": 3633,
      "hour": 3634,
      "rating": 3635,
      "sin": 3636,
      "sal": 3637,
      "sight": 3638,
      "scar": 3639,
      "wal": 3640,
      "wing": 3641,
      "wave": 3642,
      "wont": 3643,
      "zhe": 3644,
      "ane": 3645,
      "rer": 3646,
      "atmo": 3647,
      "enjo": 3648,
      "alco": 3649,
      "alzhe": 3650,
      "ison": 3651,
      "toler": 3652,
      "arct": 3653,
      "arrest": 3654,
      "asp": 3655,
      "stake": 3656,
      "dead": 3657,
      "defl": 3658,
      "detail": 3659,
      "acts": 3660,
      "condem": 3661,
      "consolid": 3662,
      "trying": 3663,
      "imers": 3664,
      "imbalance": 3665,
      "protests": 3666,
      "abled": 3667,
      "complic": 3668,
      "iron": 3669,
      "resolution": 3670,
      "ulation": 3671,
      "aft": 3672,
      "exer": 3673,
      "liby": 3674,
      "quant": 3675,
      "fewer": 3676,
      "percent": 3677,
      "perfect": 3678,
      "balanced": 3679,
      "pressing": 3680,
      "disrup": 3681,
      "aud": 3682,
      "door": 3683,
      "bled": 3684,
      "blame": 3685,
      "elites": 3686,
      "lls": 3687,
      "intensive": 3688,
      "financed": 3689,
      "governmental": 3690,
      "2018": 3691,
      "olog": 3692,
      "version": 3693,
      "guard": 3694,
      "condition": 3695,
      "lah": 3696,
      "umping": 3697,
      "spee": 3698,
      "speed": 3699,
      "keynes": 3700,
      "eastern": 3701,
      "career": 3702,
      "delay": 3703,
      "failing": 3704,
      "payment": 3705,
      "payments": 3706,
      "commitments": 3707,
      "famous": 3708,
      "closed": 3709,
      "played": 3710,
      "phil": 3711,
      "improvement": 3712,
      "numer": 3713,
      "coverage": 3714,
      "showed": 3715,
      "ethnic": 3716,
      "happens": 3717,
      "earth": 3718,
      "books": 3719,
      "understanding": 3720,
      "fourth": 3721,
      "mobile": 3722,
      "culture": 3723,
      "places": 3724,
      "priorities": 3725,
      "constitution": 3726,
      "criminal": 3727,
      "pursue": 3728,
      "offering": 3729,
      "raising": 3730,
      "losses": 3731,
      "resolve": 3732,
      "objective": 3733,
      "substantially": 3734,
      "scholars": 3735,
      "agencies": 3736,
      "paradox": 3737,
      "crops": 3738,
      "teenth": 3739,
      "devaluation": 3740,
      "ukraine": 3741,
      "ttip": 3742,
      "adapt": 3743,
      "victims": 3744,
      "thousands": 3745,
      "remarkable": 3746,
      "tariffs": 3747,
      "repeatedly": 3748,
      "greenspan": 3749,
      "scenario": 3750,
      "navaln": 3751,
      "dialo": 3752,
      "presidency": 3753,
      "alcohol": 3754,
      "alzheimers": 3755,
      "arctic": 3756,
      "percentage": 3757,
      ".)": 3758,
      "13": 3759,
      "cip": 3760,
      "gem": 3761,
      "gay": 3762,
      "ief": 3763,
      "keral": 3764,
      "master": 3765,
      "ots": 3766,
      "pun": 3767,
      "pens": 3768,
      "pace": 3769,
      "sn": 3770,
      "son": 3771,
      "som": 3772,
      "spo": 3773,
      "spect": 3774,
      "sought": 3775,
      "uge": 3776,
      "uations": 3777,
      "uine": 3778,
      "wid": 3779,
      "zones": 3780,
      "iny": 3781,
      "instr": 3782,
      "inadequate": 3783,
      "ange": 3784,
      "reward": 3785,
      "remitt": 3786,
      "erb": 3787,
      "alloc": 3788,
      "orial": 3789,
      "armed": 3790,
      "ased": 3791,
      "stay": 3792,
      "omin": 3793,
      "illegal": 3794,
      "separ": 3795,
      "select": 3796,
      "begun": 3797,
      "forcing": 3798,
      "champ": 3799,
      "ung": 3800,
      "sures": 3801,
      "implies": 3802,
      "immigrants": 3803,
      "imbalances": 3804,
      "log": 3805,
      "igate": 3806,
      "agg": 3807,
      "pool": 3808,
      "ular": 3809,
      "hegem": 3810,
      "notably": 3811,
      "oppon": 3812,
      "fell": 3813,
      "acted": 3814,
      "perform": 3815,
      "park": 3816,
      "centers": 3817,
      "doz": 3818,
      "iety": 3819,
      "march": 3820,
      "pret": 3821,
      "brain": 3822,
      "intens": 3823,
      "published": 3824,
      "calcul": 3825,
      "empire": 3826,
      "jewish": 3827,
      "sett": 3828,
      "populations": 3829,
      "ministers": 3830,
      "speak": 3831,
      "expensive": 3832,
      "elector": 3833,
      "credible": 3834,
      "includes": 3835,
      "structures": 3836,
      "accounted": 3837,
      "planning": 3838,
      "refuge": 3839,
      "netany": 3840,
      "suffered": 3841,
      "addressed": 3842,
      "falling": 3843,
      "potentially": 3844,
      "write": 3845,
      "hardly": 3846,
      "negotiate": 3847,
      "considerable": 3848,
      "allowing": 3849,
      "aza": 3850,
      "combat": 3851,
      "species": 3852,
      "ukuni": 3853,
      "holder": 3854,
      "received": 3855,
      "closely": 3856,
      "constrained": 3857,
      "absent": 3858,
      "genuine": 3859,
      "academ": 3860,
      "divided": 3861,
      "anticip": 3862,
      "communications": 3863,
      "diplomacy": 3864,
      "welcome": 3865,
      "substantial": 3866,
      "figures": 3867,
      "female": 3868,
      "usual": 3869,
      "looking": 3870,
      "frequently": 3871,
      "prohibition": 3872,
      "mechanisms": 3873,
      "producers": 3874,
      "settlement": 3875,
      "harvard": 3876,
      "arrangements": 3877,
      "nutr": 3878,
      "doctors": 3879,
      "karz": 3880,
      "liquid": 3881,
      "treasury": 3882,
      "deeper": 3883,
      "afdb": 3884,
      "yasukuni": 3885,
      "speech": 3886,
      "dialogue": 3887,
      "instru": 3888,
      "21": 3889,
      "27": 3890,
      "90": 3891,
      "ais": 3892,
      "ding": 3893,
      "gavi": 3894,
      "hed": 3895,
      "ji": 3896,
      "obl": 3897,
      "rhe": 3898,
      "rying": 3899,
      "uous": 3900,
      "wan": 3901,
      "wages": 3902,
      "thr": 3903,
      "ancy": 3904,
      "recon": 3905,
      "retain": 3906,
      "ery": 3907,
      "enabl": 3908,
      "altru": 3909,
      "orient": 3910,
      "iti": 3911,
      "itud": 3912,
      "itative": 3913,
      "arity": 3914,
      "ingly": 3915,
      "asion": 3916,
      "aside": 3917,
      "outr": 3918,
      "sem": 3919,
      "sets": 3920,
      "selling": 3921,
      "accommod": 3922,
      "acerb": 3923,
      "beij": 3924,
      "cher": 3925,
      "chain": 3926,
      "unde": 3927,
      "unprecedent": 3928,
      "impose": 3929,
      "nobel": 3930,
      "proposed": 3931,
      "absol": 3932,
      "comfor": 3933,
      "nets": 3934,
      "agers": 3935,
      "resc": 3936,
      "resili": 3937,
      "idb": 3938,
      "approv": 3939,
      "affirm": 3940,
      "exacerb": 3941,
      "heard": 3942,
      "soil": 3943,
      "geo": 3944,
      "shown": 3945,
      "2020": 3946,
      "creates": 3947,
      "evol": 3948,
      "grav": 3949,
      "autom": 3950,
      "doch": 3951,
      "preci": 3952,
      "curric": 3953,
      "globally": 3954,
      "contain": 3955,
      "context": 3956,
      "possib": 3957,
      "spir": 3958,
      "minent": 3959,
      "driving": 3960,
      "puts": 3961,
      "faith": 3962,
      "summer": 3963,
      "ology": 3964,
      "attempt": 3965,
      "remaining": 3966,
      "surely": 3967,
      "hero": 3968,
      "turns": 3969,
      "carry": 3970,
      "tried": 3971,
      "easily": 3972,
      "credibility": 3973,
      "annivers": 3974,
      "artic": 3975,
      "memory": 3976,
      "unique": 3977,
      "emerge": 3978,
      "emerged": 3979,
      "shortfall": 3980,
      "liberty": 3981,
      "successfully": 3982,
      "approaches": 3983,
      "targe": 3984,
      "causing": 3985,
      "threats": 3986,
      "threatening": 3987,
      "grew": 3988,
      "declining": 3989,
      "aims": 3990,
      "brex": 3991,
      "playing": 3992,
      "profits": 3993,
      "feder": 3994,
      "processes": 3995,
      "equival": 3996,
      "numbers": 3997,
      "patri": 3998,
      "weakness": 3999,
      "decisive": 4000,
      "amaz": 4001,
      "controls": 4002,
      "dependence": 4003,
      "informal": 4004,
      "starting": 4005,
      "greek": 4006,
      "regardless": 4007,
      "willingness": 4008,
      "delivery": 4009,
      "pushing": 4010,
      "involved": 4011,
      "incentive": 4012,
      "acceptable": 4013,
      "momentum": 4014,
      "bloc": 4015,
      "connected": 4016,
      "analy": 4017,
      "absor": 4018,
      "absence": 4019,
      "professor": 4020,
      "gradu": 4021,
      "pressive": 4022,
      "pointing": 4023,
      "billions": 4024,
      "revenue": 4025,
      "pushed": 4026,
      "fields": 4027,
      "diplomatic": 4028,
      "occurred": 4029,
      "imperative": 4030,
      "bomb": 4031,
      "figure": 4032,
      "looks": 4033,
      "experiencing": 4034,
      "mistake": 4035,
      "trouble": 4036,
      "june": 4037,
      "january": 4038,
      "murdoch": 4039,
      "accelerate": 4040,
      "collaboration": 4041,
      "candidate": 4042,
      "accurate": 4043,
      "consistent": 4044,
      "intellectual": 4045,
      "minority": 4046,
      "transparency": 4047,
      "july": 4048,
      "toric": 4049,
      "devastating": 4050,
      "overwhelming": 4051,
      "narrative": 4052,
      "permanent": 4053,
      "referen": 4054,
      "proliferation": 4055,
      "atmosphere": 4056,
      "deflation": 4057,
      "oblig": 4058,
      "rhetoric": 4059,
      "unprecedented": 4060,
      "bly": 4061,
      "crow": 4062,
      "dum": 4063,
      "dumping": 4064,
      "fil": 4065,
      "fres": 4066,
      "fli": 4067,
      "gold": 4068,
      "gave": 4069,
      "hang": 4070,
      "map": 4071,
      "mend": 4072,
      "naz": 4073,
      "pp": 4074,
      "pin": 4075,
      "pie": 4076,
      "pension": 4077,
      "rout": 4078,
      "rific": 4079,
      "sk": 4080,
      "slight": 4081,
      "tu": 4082,
      "tens": 4083,
      "ym": 4084,
      "zania": 4085,
      "incomes": 4086,
      "reag": 4087,
      "recru": 4088,
      "thening": 4089,
      "attribut": 4090,
      "aly": 4091,
      "esco": 4092,
      "orthod": 4093,
      "asked": 4094,
      "leban": 4095,
      "ilient": 4096,
      "acute": 4097,
      "conce": 4098,
      "concentr": 4099,
      "olas": 4100,
      "unsustainable": 4101,
      "unilateral": 4102,
      "unesco": 4103,
      "imposed": 4104,
      "addis": 4105,
      "admitted": 4106,
      "mention": 4107,
      "ames": 4108,
      "abes": 4109,
      "aband": 4110,
      "ababa": 4111,
      "resistance": 4112,
      "resilient": 4113,
      "iding": 4114,
      "weight": 4115,
      "ulate": 4116,
      "ulated": 4117,
      "lived": 4118,
      "word": 4119,
      "sole": 4120,
      "notion": 4121,
      "geopol": 4122,
      "option": 4123,
      "shr": 4124,
      "manip": 4125,
      "managing": 4126,
      "economist": 4127,
      "quo": 4128,
      "febr": 4129,
      "fears": 4130,
      "prince": 4131,
      "portug": 4132,
      "balk": 4133,
      "presence": 4134,
      "gry": 4135,
      "bling": 4136,
      "poses": 4137,
      "posing": 4138,
      "possibility": 4139,
      "possess": 4140,
      "supplies": 4141,
      "type": 4142,
      "warned": 4143,
      "producing": 4144,
      "2003": 4145,
      "mainly": 4146,
      "surgical": 4147,
      "cycl": 4148,
      "transfers": 4149,
      "epide": 4150,
      "generating": 4151,
      "court": 4152,
      "realize": 4153,
      "bub": 4154,
      "buying": 4155,
      "herit": 4156,
      "interested": 4157,
      "importantly": 4158,
      "elected": 4159,
      "apparen": 4160,
      "taxation": 4161,
      "operations": 4162,
      "linked": 4163,
      "accounts": 4164,
      "humanity": 4165,
      "liberation": 4166,
      "seneg": 4167,
      "insist": 4168,
      "declar": 4169,
      "ception": 4170,
      "phenom": 4171,
      "fallen": 4172,
      "traject": 4173,
      "findings": 4174,
      "charge": 4175,
      "cooperate": 4176,
      "smaller": 4177,
      "slowdown": 4178,
      "contribution": 4179,
      "strengthening": 4180,
      "aiib": 4181,
      "fueled": 4182,
      "providers": 4183,
      "currencies": 4184,
      "encouraged": 4185,
      "keeping": 4186,
      "adopt": 4187,
      "scand": 4188,
      "diagnosed": 4189,
      "availability": 4190,
      "legitimate": 4191,
      "essentially": 4192,
      "activists": 4193,
      "professional": 4194,
      "relationships": 4195,
      "properly": 4196,
      "mandar": 4197,
      "fastest": 4198,
      "algeria": 4199,
      "affordable": 4200,
      "1970s": 4201,
      "severely": 4202,
      "palestinians": 4203,
      "broken": 4204,
      "assem": 4205,
      "convention": 4206,
      "welfare": 4207,
      "mobilize": 4208,
      "survive": 4209,
      "urgent": 4210,
      "muslims": 4211,
      "excessive": 4212,
      "aught": 4213,
      "function": 4214,
      "functional": 4215,
      "candidates": 4216,
      "machine": 4217,
      "franc": 4218,
      "madrid": 4219,
      "entrepreneurs": 4220,
      "leveraging": 4221,
      "written": 4222,
      "materials": 4223,
      "sharp": 4224,
      "commercial": 4225,
      "nineteenth": 4226,
      "assume": 4227,
      "facilitate": 4228,
      "convinced": 4229,
      "pacific": 4230,
      "tanzania": 4231,
      "believed": 4232,
      "principle": 4233,
      "hundreds": 4234,
      "expertise": 4235,
      "elderly": 4236,
      "libya": 4237,
      "remittances": 4238,
      "champion": 4239,
      "aggreg": 4240,
      "enabling": 4241,
      "beijing": 4242,
      "resilience": 4243,
      "approval": 4244,
      "affirmative": 4245,
      "curricul": 4246,
      "brexit": 4247,
      "orthodox": 4248,
      "february": 4249,
      "phenomen": 4250,
      "14": 4251,
      "aus": 4252,
      "bted": 4253,
      "dut": 4254,
      "dden": 4255,
      "daugh": 4256,
      "fal": 4257,
      "gent": 4258,
      "gers": 4259,
      "gaza": 4260,
      "iwan": 4261,
      "jail": 4262,
      "ki": 4263,
      "og": 4264,
      "oing": 4265,
      "phas": 4266,
      "sac": 4267,
      "sad": 4268,
      "squ": 4269,
      "uable": 4270,
      "intra": 4271,
      "anish": 4272,
      "rey": 4273,
      "refer": 4274,
      "onom": 4275,
      "erup": 4276,
      "alle": 4277,
      "align": 4278,
      "iter": 4279,
      "tow": 4280,
      "icial": 4281,
      "asser": 4282,
      "style": 4283,
      "rose": 4284,
      "roll": 4285,
      "ille": 4286,
      "seas": 4287,
      "acles": 4288,
      "chains": 4289,
      "sudden": 4290,
      "whate": 4291,
      "utter": 4292,
      "exce": 4293,
      "expressed": 4294,
      "lihood": 4295,
      "ifying": 4296,
      "quite": 4297,
      "endit": 4298,
      "craft": 4299,
      "prize": 4300,
      "mere": 4301,
      "meles": 4302,
      "method": 4303,
      "owed": 4304,
      "disar": 4305,
      "disap": 4306,
      "disproportion": 4307,
      "grant": 4308,
      "umb": 4309,
      "content": 4310,
      "taiwan": 4311,
      "mostly": 4312,
      "obser": 4313,
      "somewhat": 4314,
      "invested": 4315,
      "rail": 4316,
      "owned": 4317,
      "policymaking": 4318,
      "highlight": 4319,
      "warm": 4320,
      "italian": 4321,
      "195": 4322,
      "assist": 4323,
      "fulfill": 4324,
      "anything": 4325,
      "caucas": 4326,
      "surprise": 4327,
      "relent": 4328,
      "transatlantic": 4329,
      "desper": 4330,
      "desire": 4331,
      "base": 4332,
      "basel": 4333,
      "adding": 4334,
      "examples": 4335,
      "subsequ": 4336,
      "inclusion": 4337,
      "courage": 4338,
      "voted": 4339,
      "custo": 4340,
      "costly": 4341,
      "valuable": 4342,
      "populist": 4343,
      "norm": 4344,
      "expendit": 4345,
      "extend": 4346,
      "legacy": 4347,
      "choose": 4348,
      "choices": 4349,
      "reformers": 4350,
      "offset": 4351,
      "included": 4352,
      "paying": 4353,
      "demanding": 4354,
      "closing": 4355,
      "senior": 4356,
      "controlled": 4357,
      "innovators": 4358,
      "regulations": 4359,
      "cutting": 4360,
      "secondary": 4361,
      "male": 4362,
      "equity": 4363,
      "concerning": 4364,
      "authoritarian": 4365,
      "sheet": 4366,
      "negotiated": 4367,
      "multi": 4368,
      "multiple": 4369,
      "requirements": 4370,
      "furthermore": 4371,
      "prises": 4372,
      "contributions": 4373,
      "allows": 4374,
      "earning": 4375,
      "historic": 4376,
      "truly": 4377,
      "seriously": 4378,
      "looked": 4379,
      "maintained": 4380,
      "implementation": 4381,
      "modification": 4382,
      "defend": 4383,
      "claimed": 4384,
      "fundament": 4385,
      "shifting": 4386,
      "distinct": 4387,
      "schem": 4388,
      "hamas": 4389,
      "corrupt": 4390,
      "swed": 4391,
      "drugs": 4392,
      "demonstrate": 4393,
      "sovereignty": 4394,
      "gases": 4395,
      "hypo": 4396,
      "volun": 4397,
      "pursuing": 4398,
      "extremely": 4399,
      "teachers": 4400,
      "meetings": 4401,
      "discussion": 4402,
      "independence": 4403,
      "divide": 4404,
      "renewed": 4405,
      "renewable": 4406,
      "assumed": 4407,
      "reductions": 4408,
      "girl": 4409,
      "immediately": 4410,
      "survival": 4411,
      "diversity": 4412,
      "original": 4413,
      "urgently": 4414,
      "coordination": 4415,
      "coordinated": 4416,
      "emergency": 4417,
      "purchases": 4418,
      "disputes": 4419,
      "alliance": 4420,
      "seeds": 4421,
      "transportation": 4422,
      "daily": 4423,
      "sunni": 4424,
      "revealed": 4425,
      "assessment": 4426,
      "hospitals": 4427,
      "computer": 4428,
      "august": 4429,
      "temperatures": 4430,
      "autonom": 4431,
      "flex": 4432,
      "platform": 4433,
      "smart": 4434,
      "koizumi": 4435,
      "tourism": 4436,
      "chemical": 4437,
      "acknowled": 4438,
      "perspective": 4439,
      "volatility": 4440,
      "fertilizer": 4441,
      "hours": 4442,
      "opponents": 4443,
      "itudes": 4444,
      "absolute": 4445,
      "equivalent": 4446,
      "amazon": 4447,
      "referendum": 4448,
      "fresh": 4449,
      "routine": 4450,
      "slightly": 4451,
      "reagan": 4452,
      "lebanon": 4453,
      "abandon": 4454,
      "geopolit": 4455,
      "portugal": 4456,
      "mandarins": 4457,
      "sacrific": 4458,
      "whatever": 4459,
      "observers": 4460,
      "17": 4461,
      "65": 4462,
      "apo": 4463,
      "ahu": 4464,
      "ball": 4465,
      "boute": 4466,
      "cou": 4467,
      "cate": 4468,
      "cious": 4469,
      "date": 4470,
      "dav": 4471,
      "ee": 4472,
      "gar": 4473,
      "gather": 4474,
      "hum": 4475,
      "iant": 4476,
      "lus": 4477,
      "lish": 4478,
      "na": 4479,
      "nur": 4480,
      "nak": 4481,
      "ored": 4482,
      "pion": 4483,
      "pil": 4484,
      "rs": 4485,
      "ril": 4486,
      "rac": 4487,
      "rant": 4488,
      "rud": 4489,
      "rarely": 4490,
      "sat": 4491,
      "sive": 4492,
      "scr": 4493,
      "tact": 4494,
      "wis": 4495,
      "wage": 4496,
      "inf": 4497,
      "infect": 4498,
      "inflows": 4499,
      "insufficient": 4500,
      "inherent": 4501,
      "anx": 4502,
      "reverse": 4503,
      "albed": 4504,
      "escape": 4505,
      "isan": 4506,
      "islands": 4507,
      "ispens": 4508,
      "oubted": 4509,
      "ston": 4510,
      "roman": 4511,
      "root": 4512,
      "league": 4513,
      "decess": 4514,
      "decreas": 4515,
      "sell": 4516,
      "forth": 4517,
      "conven": 4518,
      "traf": 4519,
      "traction": 4520,
      "susp": 4521,
      "lob": 4522,
      "aded": 4523,
      "adverse": 4524,
      "utes": 4525,
      "nove": 4526,
      "proceed": 4527,
      "amed": 4528,
      "cere": 4529,
      "abund": 4530,
      "agro": 4531,
      "poly": 4532,
      "poison": 4533,
      "approved": 4534,
      "opened": 4535,
      "ifically": 4536,
      "sho": 4537,
      "shad": 4538,
      "tees": 4539,
      "managed": 4540,
      "plent": 4541,
      "crimes": 4542,
      "indispens": 4543,
      "antarctic": 4544,
      "co2": 4545,
      "cool": 4546,
      "ongoing": 4547,
      "creative": 4548,
      "thanks": 4549,
      "discovery": 4550,
      "partisan": 4551,
      "marri": 4552,
      "prefer": 4553,
      "predecess": 4554,
      "invent": 4555,
      "bosn": 4556,
      "channe": 4557,
      "ideal": 4558,
      "series": 4559,
      "serbia": 4560,
      "spanish": 4561,
      "undoubted": 4562,
      "identity": 4563,
      "tware": 4564,
      "twitter": 4565,
      "flaw": 4566,
      "continu": 4567,
      "mug": 4568,
      "akes": 4569,
      "translate": 4570,
      "summ": 4571,
      "funded": 4572,
      "english": 4573,
      "basket": 4574,
      "generally": 4575,
      "instability": 4576,
      "supporting": 4577,
      "attemp": 4578,
      "populism": 4579,
      "backed": 4580,
      "background": 4581,
      "effectiveness": 4582,
      "norms": 4583,
      "democracies": 4584,
      "expense": 4585,
      "easing": 4586,
      "harmon": 4587,
      "apply": 4588,
      "applied": 4589,
      "taxpay": 4590,
      "viable": 4591,
      "anned": 4592,
      "annually": 4593,
      "institution": 4594,
      "institute": 4595,
      "downturn": 4596,
      "accounting": 4597,
      "roads": 4598,
      "refused": 4599,
      "networks": 4600,
      "senate": 4601,
      "facilities": 4602,
      "players": 4603,
      "profit": 4604,
      "processing": 4605,
      "appeared": 4606,
      "improvements": 4607,
      "accountable": 4608,
      "negotiating": 4609,
      "charged": 4610,
      "says": 4611,
      "tunis": 4612,
      "towards": 4613,
      "slowly": 4614,
      "arabia": 4615,
      "strength": 4616,
      "minded": 4617,
      "merit": 4618,
      "predic": 4619,
      "extrem": 4620,
      "budgets": 4621,
      "practical": 4622,
      "practice": 4623,
      "deterrence": 4624,
      "membership": 4625,
      "representatives": 4626,
      "encouraging": 4627,
      "primarily": 4628,
      "wanted": 4629,
      "sanitation": 4630,
      "define": 4631,
      "indicators": 4632,
      "vietnam": 4633,
      "mandate": 4634,
      "iliation": 4635,
      "strengthened": 4636,
      "communication": 4637,
      "discuss": 4638,
      "fixing": 4639,
      "insurg": 4640,
      "retire": 4641,
      "software": 4642,
      "bombs": 4643,
      "reinforce": 4644,
      "yields": 4645,
      "engineering": 4646,
      "purchase": 4647,
      "dispute": 4648,
      "scope": 4649,
      "exception": 4650,
      "compensation": 4651,
      "circum": 4652,
      "dictator": 4653,
      "wonder": 4654,
      "shock": 4655,
      "melt": 4656,
      "undermining": 4657,
      "crimea": 4658,
      "lux": 4659,
      "sexual": 4660,
      "christian": 4661,
      "tackling": 4662,
      "embrace": 4663,
      "equipment": 4664,
      "mortgages": 4665,
      "imagine": 4666,
      "virtually": 4667,
      "frustration": 4668,
      "described": 4669,
      "isolation": 4670,
      "restore": 4671,
      "withdrawal": 4672,
      "macroeconomic": 4673,
      "opposite": 4674,
      "colonial": 4675,
      "recommendations": 4676,
      "enjoy": 4677,
      "numerous": 4678,
      "netanyahu": 4679,
      "karzai": 4680,
      "liquidity": 4681,
      "possibly": 4682,
      "anniversary": 4683,
      "flik": 4684,
      "senegal": 4685,
      "assembly": 4686,
      "caucasus": 4687,
      "bouteflik": 4688,
      "albedo": 4689,
      "traffic": 4690,
      "indispensable": 4691,
      "aking": 4692,
      "bin": 4693,
      "bes": 4694,
      "bac": 4695,
      "cli": 4696,
      "fired": 4697,
      "gins": 4698,
      "hes": 4699,
      "hus": 4700,
      "ik": 4701,
      "nai": 4702,
      "pact": 4703,
      "qa": 4704,
      "rival": 4705,
      "sor": 4706,
      "slo": 4707,
      "swar": 4708,
      "sort": 4709,
      "text": 4710,
      "taught": 4711,
      "zim": 4712,
      "restr": 4713,
      "review": 4714,
      "recover": 4715,
      "retail": 4716,
      "resem": 4717,
      "thetic": 4718,
      "erad": 4719,
      "alar": 4720,
      "ised": 4721,
      "tocol": 4722,
      "tokyo": 4723,
      "ica": 4724,
      "icated": 4725,
      "ician": 4726,
      "eda": 4727,
      "asc": 4728,
      "asive": 4729,
      "aspect": 4730,
      "asias": 4731,
      "stor": 4732,
      "stances": 4733,
      "deliber": 4734,
      "seize": 4735,
      "chur": 4736,
      "chief": 4737,
      "conver": 4738,
      "confron": 4739,
      "trained": 4740,
      "ola": 4741,
      "unaids": 4742,
      "unequal": 4743,
      "unemployed": 4744,
      "impover": 4745,
      "impressive": 4746,
      "lock": 4747,
      "advis": 4748,
      "advert": 4749,
      "prominent": 4750,
      "protocol": 4751,
      "cture": 4752,
      "ceas": 4753,
      "tering": 4754,
      "compar": 4755,
      "irrig": 4756,
      "nether": 4757,
      "agues": 4758,
      "urally": 4759,
      "resent": 4760,
      "iders": 4761,
      "applic": 4762,
      "aff": 4763,
      "math": 4764,
      "mament": 4765,
      "exact": 4766,
      "worsen": 4767,
      "opposed": 4768,
      "haiti": 4769,
      "shut": 4770,
      "poland": 4771,
      "polls": 4772,
      "managers": 4773,
      "ques": 4774,
      "outlook": 4775,
      "active": 4776,
      "actively": 4777,
      "redis": 4778,
      "perception": 4779,
      "inding": 4780,
      "ourselves": 4781,
      "antly": 4782,
      "eurozones": 4783,
      "preser": 4784,
      "pressures": 4785,
      "grim": 4786,
      "ipal": 4787,
      "bless": 4788,
      "interpret": 4789,
      "bangl": 4790,
      "inet": 4791,
      "ultane": 4792,
      "obtain": 4793,
      "identify": 4794,
      "mainstream": 4795,
      "surge": 4796,
      "cycle": 4797,
      "empir": 4798,
      "mists": 4799,
      "missing": 4800,
      "missions": 4801,
      "greatly": 4802,
      "jews": 4803,
      "simultane": 4804,
      "realized": 4805,
      "archite": 4806,
      "statement": 4807,
      "knows": 4808,
      "visible": 4809,
      "ease": 4810,
      "holds": 4811,
      "calling": 4812,
      "harder": 4813,
      "extended": 4814,
      "apped": 4815,
      "beneficial": 4816,
      "operate": 4817,
      "artific": 4818,
      "seeks": 4819,
      "linking": 4820,
      "links": 4821,
      "privile": 4822,
      "shortage": 4823,
      "fails": 4824,
      "soccer": 4825,
      "mono": 4826,
      "foods": 4827,
      "ranging": 4828,
      "student": 4829,
      "adesh": 4830,
      "kenned": 4831,
      "threaten": 4832,
      "threatens": 4833,
      "bias": 4834,
      "centralized": 4835,
      "phone": 4836,
      "appeal": 4837,
      "initially": 4838,
      "sheets": 4839,
      "1991": 4840,
      "ships": 4841,
      "heads": 4842,
      "saying": 4843,
      "generational": 4844,
      "informed": 4845,
      "germanys": 4846,
      "contributed": 4847,
      "minds": 4848,
      "historically": 4849,
      "reflecting": 4850,
      "extremists": 4851,
      "broadly": 4852,
      "implementing": 4853,
      "secret": 4854,
      "regarding": 4855,
      "ashed": 4856,
      "delivered": 4857,
      "expanding": 4858,
      "involves": 4859,
      "boosting": 4860,
      "digit": 4861,
      "participate": 4862,
      "predictable": 4863,
      "hydro": 4864,
      "profession": 4865,
      "graph": 4866,
      "hike": 4867,
      "explained": 4868,
      "feature": 4869,
      "forestation": 4870,
      "favorable": 4871,
      "weeks": 4872,
      "exclud": 4873,
      "dividend": 4874,
      "amounts": 4875,
      "quarters": 4876,
      "brother": 4877,
      "destroy": 4878,
      "religion": 4879,
      "imperial": 4880,
      "objectives": 4881,
      "mortality": 4882,
      "leaves": 4883,
      "demonstrated": 4884,
      "houses": 4885,
      "prepare": 4886,
      "exploit": 4887,
      "waters": 4888,
      "fragmented": 4889,
      "friendly": 4890,
      "treated": 4891,
      "alliances": 4892,
      "alike": 4893,
      "compensate": 4894,
      "ignored": 4895,
      "territorial": 4896,
      "scholar": 4897,
      "package": 4898,
      "leverage": 4899,
      "proposal": 4900,
      "shocks": 4901,
      "enhance": 4902,
      "royal": 4903,
      "panels": 4904,
      "temperature": 4905,
      "village": 4906,
      "dark": 4907,
      "ncds": 4908,
      "albania": 4909,
      "streets": 4910,
      "shaping": 4911,
      "customers": 4912,
      "dub": 4913,
      "honor": 4914,
      "fellow": 4915,
      "patterns": 4916,
      "trigger": 4917,
      "components": 4918,
      "australia": 4919,
      "brutal": 4920,
      "1930s": 4921,
      "awareness": 4922,
      "navalny": 4923,
      "mastercard": 4924,
      "electoral": 4925,
      "nutrition": 4926,
      "reconc": 4927,
      "tensions": 4928,
      "bubble": 4929,
      "trajectory": 4930,
      "aggregate": 4931,
      "orthodoxy": 4932,
      "assert": 4933,
      "disarmament": 4934,
      "sweden": 4935,
      "autonomy": 4936,
      "nakas": 4937,
      "suspic": 4938,
      "plenty": 4939,
      "undoubtedly": 4940,
      "swaraj": 4941,
      "zimbab": 4942,
      "impoverished": 4943,
      "--": 4944,
      "23": 4945,
      "26": 4946,
      "28": 4947,
      "29": 4948,
      "300": 4949,
      "75": 4950,
      "bail": 4951,
      "cop": 4952,
      "camer": 4953,
      "copen": 4954,
      "cze": 4955,
      "dim": 4956,
      "dust": 4957,
      "dire": 4958,
      "dys": 4959,
      "emot": 4960,
      "fit": 4961,
      "fate": 4962,
      "fash": 4963,
      "gives": 4964,
      "gaining": 4965,
      "hong": 4966,
      "hagen": 4967,
      "ibe": 4968,
      "ires": 4969,
      "kers": 4970,
      "kong": 4971,
      "lag": 4972,
      "lay": 4973,
      "pap": 4974,
      "pli": 4975,
      "psy": 4976,
      "ries": 4977,
      "rum": 4978,
      "swe": 4979,
      "sdr": 4980,
      "sons": 4981,
      "saw": 4982,
      "vs": 4983,
      "wider": 4984,
      "wang": 4985,
      "xi": 4986,
      "zbol": 4987,
      "throw": 4988,
      "ink": 4989,
      "inefficient": 4990,
      "remo": 4991,
      "reap": 4992,
      "thein": 4993,
      "onto": 4994,
      "enced": 4995,
      "alleg": 4996,
      "escal": 4997,
      "ising": 4998,
      "isions": 4999,
      "itor": 5000,
      "itably": 5001,
      "tomor": 5002,
      "andas": 5003,
      "arth": 5004,
      "asym": 5005,
      "stric": 5006,
      "rog": 5007,
      "roph": 5008,
      "dered": 5009,
      "determ": 5010,
      "depriv": 5011,
      "depressed": 5012,
      "iled": 5013,
      "sey": 5014,
      "seat": 5015,
      "vehic": 5016,
      "forget": 5017,
      "chic": 5018,
      "consul": 5019,
      "trap": 5020,
      "trial": 5021,
      "trum": 5022,
      "suu": 5023,
      "supre": 5024,
      "sudan": 5025,
      "loye": 5026,
      "losing": 5027,
      "advice": 5028,
      "utility": 5029,
      "protest": 5030,
      "abd": 5031,
      "abuse": 5032,
      "usions": 5033,
      "illustr": 5034,
      "ounce": 5035,
      "ney": 5036,
      "agency": 5037,
      "weigh": 5038,
      "appreci": 5039,
      "mathem": 5040,
      "emit": 5041,
      "embar": 5042,
      "heat": 5043,
      "hezbol": 5044,
      "oph": 5045,
      "oppose": 5046,
      "oversight": 5047,
      "haven": 5048,
      "planned": 5049,
      "crus": 5050,
      "prag": 5051,
      "code": 5052,
      "coherent": 5053,
      "foot": 5054,
      "efire": 5055,
      "centuries": 5056,
      "prescrip": 5057,
      "discover": 5058,
      "disappear": 5059,
      "ipped": 5060,
      "nationalist": 5061,
      "prepar": 5062,
      "boston": 5063,
      "bright": 5064,
      "brings": 5065,
      "positions": 5066,
      "aves": 5067,
      "aving": 5068,
      "berlus": 5069,
      "inequ": 5070,
      "llor": 5071,
      "ideological": 5072,
      "enses": 5073,
      "intense": 5074,
      "lessly": 5075,
      "publish": 5076,
      "proven": 5077,
      "provision": 5078,
      "twice": 5079,
      "publicly": 5080,
      "drag": 5081,
      "hot": 5082,
      "compound": 5083,
      "employe": 5084,
      "missed": 5085,
      "generous": 5086,
      "helps": 5087,
      "attitudes": 5088,
      "died": 5089,
      "talking": 5090,
      "monet": 5091,
      "responses": 5092,
      "operating": 5093,
      "offs": 5094,
      "issued": 5095,
      "failures": 5096,
      "advances": 5097,
      "limiting": 5098,
      "occas": 5099,
      "innocent": 5100,
      "director": 5101,
      "organized": 5102,
      "organizing": 5103,
      "compelling": 5104,
      "declare": 5105,
      "declined": 5106,
      "plays": 5107,
      "regular": 5108,
      "regulated": 5109,
      "regulators": 5110,
      "processed": 5111,
      "focusing": 5112,
      "risky": 5113,
      "concerted": 5114,
      "concerned": 5115,
      "criter": 5116,
      "killed": 5117,
      "lawmakers": 5118,
      "1990": 5119,
      "runs": 5120,
      "nevertheless": 5121,
      "finding": 5122,
      "repression": 5123,
      "accordingly": 5124,
      "moderate": 5125,
      "violent": 5126,
      "violations": 5127,
      "element": 5128,
      "ecbs": 5129,
      "rophe": 5130,
      "openly": 5131,
      "manufacture": 5132,
      "mobility": 5133,
      "returned": 5134,
      "modest": 5135,
      "angola": 5136,
      "regarded": 5137,
      "preventing": 5138,
      "incumb": 5139,
      "representation": 5140,
      "lowering": 5141,
      "islamist": 5142,
      "involving": 5143,
      "entering": 5144,
      "enterprises": 5145,
      "oxide": 5146,
      "affecting": 5147,
      "bodies": 5148,
      "livelihood": 5149,
      "urbanization": 5150,
      "indicate": 5151,
      "frameworks": 5152,
      "cleaner": 5153,
      "vulnerability": 5154,
      "secular": 5155,
      "drawn": 5156,
      "solidarity": 5157,
      "sufficiently": 5158,
      "landscape": 5159,
      "relief": 5160,
      "alternatives": 5161,
      "chancellor": 5162,
      "revolutionary": 5163,
      "pollut": 5164,
      "namely": 5165,
      "poorer": 5166,
      "heavy": 5167,
      "convince": 5168,
      "conservation": 5169,
      "grandparents": 5170,
      "audience": 5171,
      "criticized": 5172,
      "determination": 5173,
      "troubled": 5174,
      "inevitably": 5175,
      "georg": 5176,
      "fragile": 5177,
      "tremend": 5178,
      "symbol": 5179,
      "restrictions": 5180,
      "frank": 5181,
      "territory": 5182,
      "tendency": 5183,
      "literacy": 5184,
      "stagn": 5185,
      "stagnation": 5186,
      "concluded": 5187,
      "sharply": 5188,
      "aggressive": 5189,
      "extraordinary": 5190,
      "striking": 5191,
      "harvest": 5192,
      "maximize": 5193,
      "traditionally": 5194,
      "prevailed": 5195,
      "gulf": 5196,
      "department": 5197,
      "embrac": 5198,
      "mortgage": 5199,
      "1960s": 5200,
      "breaking": 5201,
      "guarantee": 5202,
      "hurt": 5203,
      "ncd": 5204,
      "colleagues": 5205,
      "breakthroughs": 5206,
      "neighboring": 5207,
      "pipe": 5208,
      "skeptic": 5209,
      "enforcement": 5210,
      "implications": 5211,
      "obstacles": 5212,
      "motivated": 5213,
      "lenders": 5214,
      "soldiers": 5215,
      "enemies": 5216,
      "ownership": 5217,
      "catastrophe": 5218,
      "steadily": 5219,
      "fifth": 5220,
      "ratings": 5221,
      "scarce": 5222,
      "aspir": 5223,
      "exercise": 5224,
      "kerala": 5225,
      "somalia": 5226,
      "hegemony": 5227,
      "jihad": 5228,
      "rescue": 5229,
      "targeted": 5230,
      "federation": 5231,
      "piece": 5232,
      "epidemic": 5233,
      "november": 5234,
      "taxpayers": 5235,
      "circumstances": 5236,
      "qaeda": 5237,
      "eradic": 5238,
      "ceasefire": 5239,
      "irrigation": 5240,
      "netherlands": 5241,
      "empirical": 5242,
      "monopoly": 5243,
      "professionals": 5244,
      "nakasone": 5245,
      "copenhagen": 5246,
      "tomorrow": 5247,
      "asymme": 5248,
      "determine": 5249,
      "hezbollah": 5250,
      "employees": 5251,
      "livelihoods": 5252,
      "tremendous": 5253,
      "350": 5254,
      "athe": 5255,
      "aun": 5256,
      "ba": 5257,
      "blow": 5258,
      "cab": 5259,
      "cqu": 5260,
      "dign": 5261,
      "dens": 5262,
      "eco": 5263,
      "fan": 5264,
      "figh": 5265,
      "gal": 5266,
      "g20": 5267,
      "hat": 5268,
      "len": 5269,
      "night": 5270,
      "oce": 5271,
      "oso": 5272,
      "pting": 5273,
      "pestic": 5274,
      "ram": 5275,
      "tons": 5276,
      "van": 5277,
      "vit": 5278,
      "vlad": 5279,
      "wild": 5280,
      "wake": 5281,
      "xic": 5282,
      "rep": 5283,
      "rew": 5284,
      "reput": 5285,
      "reck": 5286,
      "reports": 5287,
      "ato": 5288,
      "encies": 5289,
      "enabled": 5290,
      "orious": 5291,
      "tood": 5292,
      "tocqu": 5293,
      "armen": 5294,
      "argent": 5295,
      "aspor": 5296,
      "oud": 5297,
      "sts": 5298,
      "stif": 5299,
      "stret": 5300,
      "roof": 5301,
      "decent": 5302,
      "deforestation": 5303,
      "ilton": 5304,
      "sein": 5305,
      "accompan": 5306,
      "bered": 5307,
      "chen": 5308,
      "chol": 5309,
      "chir": 5310,
      "trag": 5311,
      "tray": 5312,
      "unwilling": 5313,
      "unknown": 5314,
      "unacceptable": 5315,
      "sums": 5316,
      "imir": 5317,
      "immen": 5318,
      "logic": 5319,
      "adays": 5320,
      "novel": 5321,
      "moves": 5322,
      "prom": 5323,
      "iest": 5324,
      "abbas": 5325,
      "users": 5326,
      "illusion": 5327,
      "resort": 5328,
      "wered": 5329,
      "april": 5330,
      "keley": 5331,
      "exit": 5332,
      "exposed": 5333,
      "explic": 5334,
      "exporters": 5335,
      "liabilities": 5336,
      "heel": 5337,
      "worried": 5338,
      "count": 5339,
      "ife": 5340,
      "ift": 5341,
      "tell": 5342,
      "tels": 5343,
      "manif": 5344,
      "ferences": 5345,
      "enduring": 5346,
      "perce": 5347,
      "perip": 5348,
      "perpet": 5349,
      "indians": 5350,
      "clim": 5351,
      "coast": 5352,
      "ureate": 5353,
      "disas": 5354,
      "dispar": 5355,
      "partial": 5356,
      "dog": 5357,
      "nowadays": 5358,
      "marx": 5359,
      "marsh": 5360,
      "nationalism": 5361,
      "presum": 5362,
      "invasion": 5363,
      "contem": 5364,
      "upward": 5365,
      "fru": 5366,
      "posit": 5367,
      "berkeley": 5368,
      "someone": 5369,
      "serving": 5370,
      "intended": 5371,
      "underpin": 5372,
      "finances": 5373,
      "gery": 5374,
      "identified": 5375,
      "capture": 5376,
      "risen": 5377,
      "publics": 5378,
      "1960": 5379,
      "flight": 5380,
      "decide": 5381,
      "fault": 5382,
      "healthier": 5383,
      "relies": 5384,
      "cient": 5385,
      "intoler": 5386,
      "economys": 5387,
      "generated": 5388,
      "install": 5389,
      "attend": 5390,
      "substit": 5391,
      "dioxide": 5392,
      "diaspor": 5393,
      "realistic": 5394,
      "sels": 5395,
      "talib": 5396,
      "voting": 5397,
      "voice": 5398,
      "voices": 5399,
      "laureate": 5400,
      "archy": 5401,
      "populists": 5402,
      "responsib": 5403,
      "signs": 5404,
      "joined": 5405,
      "jobless": 5406,
      "delta": 5407,
      "delhi": 5408,
      "memories": 5409,
      "humanitarian": 5410,
      "river": 5411,
      "mitigate": 5412,
      "facts": 5413,
      "didnt": 5414,
      "focuses": 5415,
      "bigger": 5416,
      "initial": 5417,
      "cognitive": 5418,
      "projected": 5419,
      "industrialized": 5420,
      "migrant": 5421,
      "denied": 5422,
      "measured": 5423,
      "shares": 5424,
      "recognizing": 5425,
      "lacks": 5426,
      "lacking": 5427,
      "weaker": 5428,
      "weakened": 5429,
      "thirds": 5430,
      "charter": 5431,
      "integrate": 5432,
      "ethical": 5433,
      "happy": 5434,
      "happening": 5435,
      "multination": 5436,
      "arguing": 5437,
      "burma": 5438,
      "moroc": 5439,
      "elements": 5440,
      "mindset": 5441,
      "reflected": 5442,
      "civilians": 5443,
      "otic": 5444,
      "combination": 5445,
      "wealthy": 5446,
      "reasonable": 5447,
      "administrative": 5448,
      "ruled": 5449,
      "nigerias": 5450,
      "panic": 5451,
      "prevention": 5452,
      "classical": 5453,
      "incident": 5454,
      "represented": 5455,
      "latter": 5456,
      "electron": 5457,
      "distur": 5458,
      "accum": 5459,
      "hamilton": 5460,
      "accepted": 5461,
      "dominate": 5462,
      "dominant": 5463,
      "hungry": 5464,
      "korean": 5465,
      "constructive": 5466,
      "palestine": 5467,
      "influential": 5468,
      "passed": 5469,
      "variety": 5470,
      "released": 5471,
      "gradually": 5472,
      "introduce": 5473,
      "pursuit": 5474,
      "adequately": 5475,
      "badly": 5476,
      "forests": 5477,
      "raises": 5478,
      "kyi": 5479,
      "exclusive": 5480,
      "teaching": 5481,
      "germans": 5482,
      "uggish": 5483,
      "dividends": 5484,
      "reliance": 5485,
      "vaccine": 5486,
      "medicaid": 5487,
      "cataly": 5488,
      "succeeded": 5489,
      "amplif": 5490,
      "diversify": 5491,
      "joining": 5492,
      "cheaper": 5493,
      "demonstrations": 5494,
      "nicolas": 5495,
      "bushs": 5496,
      "delivering": 5497,
      "neglect": 5498,
      "pledged": 5499,
      "meaningful": 5500,
      "collaborative": 5501,
      "frequent": 5502,
      "recommended": 5503,
      "restrict": 5504,
      "destructive": 5505,
      "sluggish": 5506,
      "advocates": 5507,
      "emphasize": 5508,
      "sentiment": 5509,
      "television": 5510,
      "telecommunications": 5511,
      "writer": 5512,
      "adjusted": 5513,
      "characterized": 5514,
      "aggression": 5515,
      "undermined": 5516,
      "surprisingly": 5517,
      "superconductors": 5518,
      "floods": 5519,
      "flooding": 5520,
      "minimum": 5521,
      "undersco": 5522,
      "understood": 5523,
      "tackle": 5524,
      "stressed": 5525,
      "baby": 5526,
      "mounting": 5527,
      "penal": 5528,
      "street": 5529,
      "college": 5530,
      "horiz": 5531,
      "executives": 5532,
      "enemy": 5533,
      "stabilize": 5534,
      "catastroph": 5535,
      "journalists": 5536,
      "feminism": 5537,
      "habit": 5538,
      "hillary": 5539,
      "details": 5540,
      "ironically": 5541,
      "disruption": 5542,
      "separate": 5543,
      "underest": 5544,
      "exacerbate": 5545,
      "absorb": 5546,
      "apparently": 5547,
      "curriculum": 5548,
      "phenomenon": 5549,
      "excell": 5550,
      "fundamentals": 5551,
      "geopolitical": 5552,
      "categ": 5553,
      "satis": 5554,
      "lobby": 5555,
      "exactly": 5556,
      "bangladesh": 5557,
      "architecture": 5558,
      "artificial": 5559,
      "zimbabwe": 5560,
      "fashion": 5561,
      "mathemat": 5562,
      "berluscon": 5563,
      "skepticism": 5564,
      "vladimir": 5565,
      "tocquev": 5566,
      "accompanied": 5567,
      "chirac": 5568,
      "immense": 5569,
      "explicit": 5570,
      "peripher": 5571,
      "diaspora": 5572,
      "talibans": 5573,
      "62": 5574,
      "bit": 5575,
      "band": 5576,
      "bian": 5577,
      "binding": 5578,
      "cant": 5579,
      "dated": 5580,
      "dile": 5581,
      "dating": 5582,
      "dimin": 5583,
      "eager": 5584,
      "foun": 5585,
      "fasc": 5586,
      "gained": 5587,
      "gaps": 5588,
      "giant": 5589,
      "hid": 5590,
      "hier": 5591,
      "hiring": 5592,
      "iat": 5593,
      "jin": 5594,
      "ker": 5595,
      "kam": 5596,
      "kest": 5597,
      "kunder": 5598,
      "kish": 5599,
      "kick": 5600,
      "lago": 5601,
      "ners": 5602,
      "oth": 5603,
      "ocr": 5604,
      "oted": 5605,
      "pict": 5606,
      "rase": 5607,
      "shel": 5608,
      "spot": 5609,
      "tas": 5610,
      "twee": 5611,
      "tension": 5612,
      "via": 5613,
      "wol": 5614,
      "xia": 5615,
      "ximately": 5616,
      "thres": 5617,
      "inj": 5618,
      "indeb": 5619,
      "inability": 5620,
      "insecurity": 5621,
      "intract": 5622,
      "injustice": 5623,
      "inputs": 5624,
      "inherit": 5625,
      "anim": 5626,
      "annex": 5627,
      "ancient": 5628,
      "rem": 5629,
      "rebe": 5630,
      "reaction": 5631,
      "replaced": 5632,
      "removed": 5633,
      "ensu": 5634,
      "toxic": 5635,
      "icel": 5636,
      "icult": 5637,
      "ingu": 5638,
      "ashing": 5639,
      "stance": 5640,
      "storm": 5641,
      "rote": 5642,
      "robi": 5643,
      "rolled": 5644,
      "roots": 5645,
      "lee": 5646,
      "deleg": 5647,
      "deleveraging": 5648,
      "iling": 5649,
      "ilty": 5650,
      "aca": 5651,
      "accus": 5652,
      "lywood": 5653,
      "const": 5654,
      "concre": 5655,
      "congo": 5656,
      "concept": 5657,
      "trill": 5658,
      "train": 5659,
      "traged": 5660,
      "uns": 5661,
      "unle": 5662,
      "imprison": 5663,
      "imposing": 5664,
      "los": 5665,
      "loan": 5666,
      "loom": 5667,
      "locked": 5668,
      "adul": 5669,
      "moon": 5670,
      "moil": 5671,
      "mood": 5672,
      "mosco": 5673,
      "ami": 5674,
      "amin": 5675,
      "ceo": 5676,
      "igor": 5677,
      "igating": 5678,
      "abort": 5679,
      "abenom": 5680,
      "peter": 5681,
      "illness": 5682,
      "comings": 5683,
      "neo": 5684,
      "neu": 5685,
      "resident": 5686,
      "pointe": 5687,
      "posure": 5688,
      "ula": 5689,
      "withstanding": 5690,
      "apart": 5691,
      "appoint": 5692,
      "appointe": 5693,
      "exposure": 5694,
      "worrying": 5695,
      "notwithstanding": 5696,
      "aint": 5697,
      "shor": 5698,
      "manner": 5699,
      "economically": 5700,
      "quie": 5701,
      "fee": 5702,
      "feld": 5703,
      "plum": 5704,
      "permit": 5705,
      "prus": 5706,
      "print": 5707,
      "induced": 5708,
      "indones": 5709,
      "parks": 5710,
      "paralle": 5711,
      "2025": 5712,
      "metr": 5713,
      "struck": 5714,
      "astic": 5715,
      "eva": 5716,
      "odivers": 5717,
      "centered": 5718,
      "discourse": 5719,
      "disabilities": 5720,
      "dissent": 5721,
      "disabled": 5722,
      "grid": 5723,
      "grass": 5724,
      "overnight": 5725,
      "partys": 5726,
      "docu": 5727,
      "oughts": 5728,
      "ieties": 5729,
      "ips": 5730,
      "marine": 5731,
      "blind": 5732,
      "interconnected": 5733,
      "contained": 5734,
      "boj": 5735,
      "boys": 5736,
      "frances": 5737,
      "observed": 5738,
      "pleas": 5739,
      "spill": 5740,
      "forecast": 5741,
      "syri": 5742,
      "intent": 5743,
      "intention": 5744,
      "underway": 5745,
      "lessness": 5746,
      "workplace": 5747,
      "provin": 5748,
      "capabilities": 5749,
      "droughts": 5750,
      "anywhere": 5751,
      "flour": 5752,
      "cali": 5753,
      "2000s": 5754,
      "turkish": 5755,
      "turmoil": 5756,
      "compact": 5757,
      "surgery": 5758,
      "cyprus": 5759,
      "transl": 5760,
      "systemic": 5761,
      "epis": 5762,
      "engaged": 5763,
      "miss": 5764,
      "instance": 5765,
      "guilty": 5766,
      "aftermath": 5767,
      "attain": 5768,
      "imported": 5769,
      "diverse": 5770,
      "courts": 5771,
      "conscious": 5772,
      "valued": 5773,
      "backs": 5774,
      "backing": 5775,
      "sustaining": 5776,
      "socialist": 5777,
      "capitalize": 5778,
      "resulted": 5779,
      "visiting": 5780,
      "harsh": 5781,
      "myth": 5782,
      "pricing": 5783,
      "approximately": 5784,
      "paul": 5785,
      "strongly": 5786,
      "operation": 5787,
      "venture": 5788,
      "shortcomings": 5789,
      "reassuring": 5790,
      "advancing": 5791,
      "successes": 5792,
      "accessible": 5793,
      "directors": 5794,
      "refuse": 5795,
      "biological": 5796,
      "biodivers": 5797,
      "challenged": 5798,
      "rightly": 5799,
      "credited": 5800,
      "childrens": 5801,
      "treating": 5802,
      "treaties": 5803,
      "singapo": 5804,
      "feds": 5805,
      "gotten": 5806,
      "poorly": 5807,
      "equitable": 5808,
      "killing": 5809,
      "expectations": 5810,
      "expectancy": 5811,
      "foundations": 5812,
      "rupt": 5813,
      "argues": 5814,
      "arguments": 5815,
      "citing": 5816,
      "imped": 5817,
      "awak": 5818,
      "initiated": 5819,
      "ecological": 5820,
      "slowed": 5821,
      "understandable": 5822,
      "historians": 5823,
      "merke": 5824,
      "combating": 5825,
      "pala": 5826,
      "maintaining": 5827,
      "cultiv": 5828,
      "supervision": 5829,
      "specifically": 5830,
      "campaigns": 5831,
      "holland": 5832,
      "placing": 5833,
      "sake": 5834,
      "representative": 5835,
      "transformed": 5836,
      "primacy": 5837,
      "distingu": 5838,
      "adopting": 5839,
      "congressional": 5840,
      "consequence": 5841,
      "prosperous": 5842,
      "damaging": 5843,
      "dominance": 5844,
      "collectively": 5845,
      "block": 5846,
      "swit": 5847,
      "defining": 5848,
      "lifest": 5849,
      "borrowers": 5850,
      "kinds": 5851,
      "citys": 5852,
      "ronald": 5853,
      "features": 5854,
      "exclusion": 5855,
      "teacher": 5856,
      "suggested": 5857,
      "suggesting": 5858,
      "mutually": 5859,
      "reliable": 5860,
      "vaccination": 5861,
      "accepting": 5862,
      "medicines": 5863,
      "attracted": 5864,
      "attracting": 5865,
      "letter": 5866,
      "resolving": 5867,
      "discussed": 5868,
      "silent": 5869,
      "assumption": 5870,
      "syrian": 5871,
      "dynamics": 5872,
      "wishes": 5873,
      "responding": 5874,
      "occurs": 5875,
      "listen": 5876,
      "touch": 5877,
      "mobilizing": 5878,
      "reinforced": 5879,
      "opinions": 5880,
      "grandmother": 5881,
      "competitors": 5882,
      "sarkozys": 5883,
      "statistical": 5884,
      "watch": 5885,
      "trees": 5886,
      "symp": 5887,
      "inspire": 5888,
      "inspired": 5889,
      "emphasis": 5890,
      "territories": 5891,
      "circle": 5892,
      "paradig": 5893,
      "filled": 5894,
      "smokest": 5895,
      "adjustment": 5896,
      "produces": 5897,
      "surpluses": 5898,
      "dreams": 5899,
      "proposals": 5900,
      "strikes": 5901,
      "devaluations": 5902,
      "maximizing": 5903,
      "arrangement": 5904,
      "commerce": 5905,
      "hostile": 5906,
      "transparent": 5907,
      "convincing": 5908,
      "clinical": 5909,
      "wastewater": 5910,
      "believes": 5911,
      "wedding": 5912,
      "shaped": 5913,
      "platforms": 5914,
      "stalin": 5915,
      "felt": 5916,
      "describes": 5917,
      "reversed": 5918,
      "chairman": 5919,
      "empowerment": 5920,
      "component": 5921,
      "persistent": 5922,
      "involvement": 5923,
      "wait": 5924,
      "waiting": 5925,
      "revolutions": 5926,
      "bloody": 5927,
      "sino": 5928,
      "doormat": 5929,
      "philoso": 5930,
      "spoke": 5931,
      "widening": 5932,
      "settling": 5933,
      "academia": 5934,
      "academics": 5935,
      "instrumental": 5936,
      "altruism": 5937,
      "oriented": 5938,
      "outrage": 5939,
      "comfortable": 5940,
      "spirit": 5941,
      "graduates": 5942,
      "film": 5943,
      "balkan": 5944,
      "declaration": 5945,
      "scandal": 5946,
      "francis": 5947,
      "disproportionately": 5948,
      "flexibility": 5949,
      "david": 5950,
      "pione": 5951,
      "infectious": 5952,
      "inherently": 5953,
      "ceremon": 5954,
      "marriage": 5955,
      "predecessors": 5956,
      "bosnia": 5957,
      "attempts": 5958,
      "extremes": 5959,
      "nairobi": 5960,
      "alarming": 5961,
      "resentment": 5962,
      "redistribut": 5963,
      "preserve": 5964,
      "dysfunctional": 5965,
      "emotional": 5966,
      "psych": 5967,
      "remote": 5968,
      "deprived": 5969,
      "consult": 5970,
      "supreme": 5971,
      "ophob": 5972,
      "manufacturers": 5973,
      "aspirations": 5974,
      "asymmetric": 5975,
      "cabinet": 5976,
      "argentina": 5977,
      "cholera": 5978,
      "tragic": 5979,
      "intolerance": 5980,
      "responsibilities": 5981,
      "morocco": 5982,
      "disturbing": 5983,
      "underscores": 5984,
      "catastrophic": 5985,
      "hidden": 5986,
      "kampala": 5987,
      "indebted": 5988,
      "concrete": 5989,
      "trillions": 5990,
      "abenomics": 5991,
      "indonesia": 5992,
      "biodiversity": 5993,
      "singapore": 5994,
      "smokestack": 5995,
      "34": 5996,
      "400": 5997,
      "700": 5998,
      "aks": 5999,
      "aise": 6000,
      "bc": 6001,
      "bay": 6002,
      "barely": 6003,
      "cro": 6004,
      "cke": 6005,
      "dir": 6006,
      "ein": 6007,
      "eye": 6008,
      "einst": 6009,
      "fat": 6010,
      "ga": 6011,
      "gb": 6012,
      "gary": 6013,
      "gments": 6014,
      "gbt": 6015,
      "han": 6016,
      "hate": 6017,
      "hire": 6018,
      "hort": 6019,
      "iated": 6020,
      "jim": 6021,
      "jack": 6022,
      "javi": 6023,
      "james": 6024,
      "kin": 6025,
      "kim": 6026,
      "krem": 6027,
      "kgb": 6028,
      "kjavi": 6029,
      "lap": 6030,
      "lights": 6031,
      "lgbt": 6032,
      "mild": 6033,
      "matic": 6034,
      "mck": 6035,
      "mired": 6036,
      "nia": 6037,
      "nard": 6038,
      "oeconomic": 6039,
      "oire": 6040,
      "oks": 6041,
      "ps": 6042,
      "piv": 6043,
      "pca": 6044,
      "rare": 6045,
      "ray": 6046,
      "sand": 6047,
      "sli": 6048,
      "spl": 6049,
      "scre": 6050,
      "sports": 6051,
      "tam": 6052,
      "tap": 6053,
      "tics": 6054,
      "tton": 6055,
      "tends": 6056,
      "ub": 6057,
      "vac": 6058,
      "vary": 6059,
      "wound": 6060,
      "waves": 6061,
      "ya": 6062,
      "zen": 6063,
      "inking": 6064,
      "incar": 6065,
      "inaction": 6066,
      "inery": 6067,
      "insey": 6068,
      "ano": 6069,
      "anth": 6070,
      "anch": 6071,
      "revel": 6072,
      "restruct": 6073,
      "repay": 6074,
      "remor": 6075,
      "remember": 6076,
      "recovered": 6077,
      "ature": 6078,
      "ativity": 6079,
      "enlight": 6080,
      "enables": 6081,
      "enacted": 6082,
      "island": 6083,
      "itated": 6084,
      "tot": 6085,
      "arm": 6086,
      "arts": 6087,
      "arrow": 6088,
      "arians": 6089,
      "ingred": 6090,
      "stic": 6091,
      "stone": 6092,
      "staff": 6093,
      "rock": 6094,
      "entail": 6095,
      "omics": 6096,
      "dement": 6097,
      "deem": 6098,
      "devic": 6099,
      "degrad": 6100,
      "devoted": 6101,
      "dearth": 6102,
      "ils": 6103,
      "ilation": 6104,
      "accompl": 6105,
      "behave": 6106,
      "begins": 6107,
      "forge": 6108,
      "cha": 6109,
      "chand": 6110,
      "cham": 6111,
      "confir": 6112,
      "confederation": 6113,
      "triv": 6114,
      "unting": 6115,
      "unconventional": 6116,
      "unusual": 6117,
      "superi": 6118,
      "iments": 6119,
      "imply": 6120,
      "impair": 6121,
      "logical": 6122,
      "losis": 6123,
      "versy": 6124,
      "versus": 6125,
      "prop": 6126,
      "prolong": 6127,
      "aming": 6128,
      "cte": 6129,
      "usal": 6130,
      "ussels": 6131,
      "petr": 6132,
      "peers": 6133,
      "illes": 6134,
      "nel": 6135,
      "web": 6136,
      "ullah": 6137,
      "appointed": 6138,
      "exists": 6139,
      "explan": 6140,
      "express": 6141,
      "ested": 6142,
      "emen": 6143,
      "emic": 6144,
      "emission": 6145,
      "liu": 6146,
      "heed": 6147,
      "hell": 6148,
      "herence": 6149,
      "worry": 6150,
      "richer": 6151,
      "soaring": 6152,
      "note": 6153,
      "counts": 6154,
      "geon": 6155,
      "iful": 6156,
      "shed": 6157,
      "maneu": 6158,
      "fet": 6159,
      "outbreak": 6160,
      "outdated": 6161,
      "pling": 6162,
      "redress": 6163,
      "perpetr": 6164,
      "prud": 6165,
      "pride": 6166,
      "clout": 6167,
      "clash": 6168,
      "portfol": 6169,
      "cope": 6170,
      "string": 6171,
      "stranger": 6172,
      "strife": 6173,
      "creativity": 6174,
      "fost": 6175,
      "balancing": 6176,
      "oda": 6177,
      "dispos": 6178,
      "displaced": 6179,
      "grants": 6180,
      "governed": 6181,
      "governing": 6182,
      "fine": 6183,
      "mart": 6184,
      "marks": 6185,
      "marry": 6186,
      "blamed": 6187,
      "intergovernmental": 6188,
      "prem": 6189,
      "curve": 6190,
      "globalized": 6191,
      "invari": 6192,
      "uphold": 6193,
      "upcoming": 6194,
      "upgrad": 6195,
      "politician": 6196,
      "box": 6197,
      "fried": 6198,
      "brussels": 6199,
      "whoever": 6200,
      "aven": 6201,
      "bercu": 6202,
      "ela": 6203,
      "elig": 6204,
      "elite": 6205,
      "chances": 6206,
      "suppose": 6207,
      "suppli": 6208,
      "wheat": 6209,
      "foresee": 6210,
      "syn": 6211,
      "warfare": 6212,
      "oldest": 6213,
      "italys": 6214,
      "dry": 6215,
      "drivers": 6216,
      "farms": 6217,
      "financially": 6218,
      "compass": 6219,
      "surface": 6220,
      "transnational": 6221,
      "transitional": 6222,
      "transmission": 6223,
      "factories": 6224,
      "conditional": 6225,
      "attitude": 6226,
      "requiring": 6227,
      "ponomics": 6228,
      "votes": 6229,
      "index": 6230,
      "sectarian": 6231,
      "socially": 6232,
      "carried": 6233,
      "cartels": 6234,
      "qualities": 6235,
      "jordan": 6236,
      "visits": 6237,
      "seemingly": 6238,
      "careful": 6239,
      "koreas": 6240,
      "childhood": 6241,
      "securities": 6242,
      "announce": 6243,
      "employs": 6244,
      "terrible": 6245,
      "operational": 6246,
      "shortages": 6247,
      "ranked": 6248,
      "topic": 6249,
      "sciences": 6250,
      "certainty": 6251,
      "famine": 6252,
      "famously": 6253,
      "officers": 6254,
      "midterm": 6255,
      "problematic": 6256,
      "consuming": 6257,
      "approaching": 6258,
      "caution": 6259,
      "roadmap": 6260,
      "accessibility": 6261,
      "match": 6262,
      "mature": 6263,
      "compete": 6264,
      "competing": 6265,
      "controversy": 6266,
      "traders": 6267,
      "creditors": 6268,
      "inside": 6269,
      "profitable": 6270,
      "mali": 6271,
      "malays": 6272,
      "fallout": 6273,
      "appealing": 6274,
      "aircraft": 6275,
      "patient": 6276,
      "sheer": 6277,
      "denounced": 6278,
      "shareholders": 6279,
      "finds": 6280,
      "weakening": 6281,
      "negotiation": 6282,
      "charges": 6283,
      "headed": 6284,
      "showing": 6285,
      "integral": 6286,
      "integrating": 6287,
      "israelis": 6288,
      "rupture": 6289,
      "impunity": 6290,
      "facebook": 6291,
      "richest": 6292,
      "burg": 6293,
      "burmas": 6294,
      "smallholder": 6295,
      "dependency": 6296,
      "iranian": 6297,
      "experiences": 6298,
      "considerably": 6299,
      "contributes": 6300,
      "historian": 6301,
      "citizen": 6302,
      "fueling": 6303,
      "modernity": 6304,
      "modernization": 6305,
      "achievements": 6306,
      "agendas": 6307,
      "ruling": 6308,
      "check": 6309,
      "checked": 6310,
      "superpower": 6311,
      "totalitarian": 6312,
      "skilled": 6313,
      "suspect": 6314,
      "tempt": 6315,
      "deterior": 6316,
      "claiming": 6317,
      "turkeys": 6318,
      "safeguard": 6319,
      "101": 6320,
      "encourages": 6321,
      "experiment": 6322,
      "freedoms": 6323,
      "distant": 6324,
      "distance": 6325,
      "receiving": 6326,
      "constitute": 6327,
      "islamists": 6328,
      "adoption": 6329,
      "hamid": 6330,
      "scid": 6331,
      "enterprise": 6332,
      "hungary": 6333,
      "music": 6334,
      "confuc": 6335,
      "confident": 6336,
      "keso": 6337,
      "criminals": 6338,
      "collection": 6339,
      "ethiopias": 6340,
      "participants": 6341,
      "stimulate": 6342,
      "narco": 6343,
      "rainfall": 6344,
      "lifted": 6345,
      "popularity": 6346,
      "universitys": 6347,
      "activism": 6348,
      "indicating": 6349,
      "passing": 6350,
      "pursued": 6351,
      "fundamentalists": 6352,
      "geneva": 6353,
      "mandela": 6354,
      "explains": 6355,
      "complexity": 6356,
      "algerians": 6357,
      "1977": 6358,
      "relied": 6359,
      "medicare": 6360,
      "medicine": 6361,
      "ambassad": 6362,
      "counterproductive": 6363,
      "destined": 6364,
      "resolved": 6365,
      "divisions": 6366,
      "divoire": 6367,
      "assumes": 6368,
      "socioeconomic": 6369,
      "kenyan": 6370,
      "listening": 6371,
      "advantages": 6372,
      "belt": 6373,
      "demonstrating": 6374,
      "mistakes": 6375,
      "protectionism": 6376,
      "mexican": 6377,
      "engineer": 6378,
      "pledge": 6379,
      "disputed": 6380,
      "fragment": 6381,
      "accelerating": 6382,
      "exceptional": 6383,
      "presented": 6384,
      "parliamentary": 6385,
      "machinery": 6386,
      "complaints": 6387,
      "magn": 6388,
      "inspiring": 6389,
      "acquire": 6390,
      "aviation": 6391,
      "packages": 6392,
      "entrepreneurship": 6393,
      "accurately": 6394,
      "literally": 6395,
      "daunting": 6396,
      "painful": 6397,
      "smooth": 6398,
      "reveal": 6399,
      "aggressively": 6400,
      "melting": 6401,
      "strike": 6402,
      "settlements": 6403,
      "millennial": 6404,
      "algorithmic": 6405,
      "dedicated": 6406,
      "enhancing": 6407,
      "computers": 6408,
      "persuaded": 6409,
      "fathers": 6410,
      "sensitive": 6411,
      "harmful": 6412,
      "assured": 6413,
      "occupied": 6414,
      "virtue": 6415,
      "breaks": 6416,
      "guarantees": 6417,
      "customary": 6418,
      "neighborhood": 6419,
      "arrived": 6420,
      "koizumis": 6421,
      "bureaucracy": 6422,
      "homes": 6423,
      "rejection": 6424,
      "restored": 6425,
      "steady": 6426,
      "kyoto": 6427,
      "witnessed": 6428,
      "arrested": 6429,
      "condemned": 6430,
      "consolidate": 6431,
      "complicated": 6432,
      "quantitative": 6433,
      "ologist": 6434,
      "keynesian": 6435,
      "performing": 6436,
      "dozen": 6437,
      "dozens": 6438,
      "refugee": 6439,
      "refugees": 6440,
      "absentee": 6441,
      "instruments": 6442,
      "accommodation": 6443,
      "cherkeso": 6444,
      "evolve": 6445,
      "patriarch": 6446,
      "blocking": 6447,
      "analysts": 6448,
      "murdochs": 6449,
      "overwhelmingly": 6450,
      "obligations": 6451,
      "tubercu": 6452,
      "concentration": 6453,
      "princeton": 6454,
      "cyclical": 6455,
      "daughter": 6456,
      "sadly": 6457,
      "reykjavi": 6458,
      "erupted": 6459,
      "suddenly": 6460,
      "utterly": 6461,
      "methods": 6462,
      "disappointing": 6463,
      "granted": 6464,
      "desperately": 6465,
      "subsequently": 6466,
      "expenditure": 6467,
      "scheme": 6468,
      "acknowledged": 6469,
      "couple": 6470,
      "racial": 6471,
      "wisdom": 6472,
      "forthcoming": 6473,
      "shadow": 6474,
      "flawed": 6475,
      "summers": 6476,
      "tunisia": 6477,
      "insurgents": 6478,
      "retirement": 6479,
      "meltdown": 6480,
      "traffickers": 6481,
      "clients": 6482,
      "simultaneously": 6483,
      "reconciliation": 6484,
      "bailout": 6485,
      "wangari": 6486,
      "alleged": 6487,
      "chicago": 6488,
      "trumponomics": 6489,
      "monetization": 6490,
      "occasion": 6491,
      "criteria": 6492,
      "fighters": 6493,
      "ocean": 6494,
      "repud": 6495,
      "perceived": 6496,
      "multinational": 6497,
      "horizon": 6498,
      "satisf": 6499,
      "berlusconi": 6500,
      "dilem": 6501,
      "picture": 6502,
      "iceland": 6503,
      "tragedy": 6504,
      "moscow": 6505,
      "metrics": 6506,
      "hollande": 6507,
      "einstein": 6508,
      "kremlin": 6509,
      "mckinsey": 6510,
      "remorse": 6511,
      "dementia": 6512,
      "deemed": 6513,
      "devices": 6514,
      "trivial": 6515,
      "superior": 6516,
      "portfolio": 6517,
      "invariably": 6518,
      "suppliers": 6519,
      "tuberculosis": 6520,
      "reykjavik": 6521,
      "%),": 6522,
      "170": 6523,
      "22": 6524,
      "250": 6525,
      "31": 6526,
      "44": 6527,
      "55": 6528,
      "63": 6529,
      "68": 6530,
      "600": 6531,
      "aur": 6532,
      "aques": 6533,
      "bp": 6534,
      "bow": 6535,
      "bast": 6536,
      "bought": 6537,
      "dwell": 6538,
      "daw": 6539,
      "ean": 6540,
      "echo": 6541,
      "fant": 6542,
      "fade": 6543,
      "fish": 6544,
      "fold": 6545,
      "fought": 6546,
      "fier": 6547,
      "gand": 6548,
      "gence": 6549,
      "gian": 6550,
      "gically": 6551,
      "hen": 6552,
      "hall": 6553,
      "iro": 6554,
      "iver": 6555,
      "iable": 6556,
      "iary": 6557,
      "ique": 6558,
      "jer": 6559,
      "kil": 6560,
      "kag": 6561,
      "lor": 6562,
      "lest": 6563,
      "laid": 6564,
      "leng": 6565,
      "mare": 6566,
      "maf": 6567,
      "nas": 6568,
      "nom": 6569,
      "ore": 6570,
      "pc": 6571,
      "pic": 6572,
      "pill": 6573,
      "pid": 6574,
      "pure": 6575,
      "pick": 6576,
      "plif": 6577,
      "pharm": 6578,
      "rust": 6579,
      "rally": 6580,
      "rann": 6581,
      "route": 6582,
      "rift": 6583,
      "sla": 6584,
      "sending": 6585,
      "slack": 6586,
      "sky": 6587,
      "sale": 6588,
      "smug": 6589,
      "tie": 6590,
      "tide": 6591,
      "tled": 6592,
      "tpp": 6593,
      "ume": 6594,
      "uset": 6595,
      "vin": 6596,
      "vat": 6597,
      "vague": 6598,
      "wen": 6599,
      "wwi": 6600,
      "winter": 6601,
      "wins": 6602,
      "wrote": 6603,
      "za": 6604,
      "zo": 6605,
      "thom": 6606,
      "ini": 6607,
      "incur": 6608,
      "insol": 6609,
      "inject": 6610,
      "inward": 6611,
      "inaug": 6612,
      "anemic": 6613,
      "reci": 6614,
      "remem": 6615,
      "replic": 6616,
      "returning": 6617,
      "rebound": 6618,
      "recip": 6619,
      "theo": 6620,
      "thesis": 6621,
      "onset": 6622,
      "err": 6623,
      "ert": 6624,
      "erod": 6625,
      "atism": 6626,
      "atories": 6627,
      "enp": 6628,
      "enance": 6629,
      "enlarge": 6630,
      "enthus": 6631,
      "alas": 6632,
      "alex": 6633,
      "alep": 6634,
      "alias": 6635,
      "altogether": 6636,
      "itary": 6637,
      "icon": 6638,
      "icting": 6639,
      "ander": 6640,
      "arre": 6641,
      "asking": 6642,
      "stan": 6643,
      "stages": 6644,
      "stories": 6645,
      "staun": 6646,
      "rooted": 6647,
      "entered": 6648,
      "leak": 6649,
      "omer": 6650,
      "dev": 6651,
      "default": 6652,
      "iles": 6653,
      "illo": 6654,
      "seum": 6655,
      "secut": 6656,
      "vet": 6657,
      "acon": 6658,
      "bever": 6659,
      "bearing": 6660,
      "fornia": 6661,
      "convers": 6662,
      "convic": 6663,
      "trac": 6664,
      "oles": 6665,
      "unrest": 6666,
      "unfair": 6667,
      "unification": 6668,
      "thats": 6669,
      "suit": 6670,
      "sume": 6671,
      "imated": 6672,
      "impa": 6673,
      "impression": 6674,
      "immigrant": 6675,
      "imilation": 6676,
      "love": 6677,
      "whites": 6678,
      "ading": 6679,
      "adminis": 6680,
      "admit": 6681,
      "admission": 6682,
      "admissions": 6683,
      "verge": 6684,
      "uted": 6685,
      "nov": 6686,
      "motion": 6687,
      "proced": 6688,
      "protract": 6689,
      "amid": 6690,
      "ample": 6691,
      "ctare": 6692,
      "cel": 6693,
      "abid": 6694,
      "usively": 6695,
      "ouncing": 6696,
      "comparis": 6697,
      "irish": 6698,
      "agon": 6699,
      "agents": 6700,
      "iday": 6701,
      "wife": 6702,
      "withstand": 6703,
      "mail": 6704,
      "maur": 6705,
      "maist": 6706,
      "exc": 6707,
      "embod": 6708,
      "emulate": 6709,
      "height": 6710,
      "hectare": 6711,
      "richard": 6712,
      "noted": 6713,
      "notice": 6714,
      "overha": 6715,
      "haz": 6716,
      "hail": 6717,
      "ifies": 6718,
      "shin": 6719,
      "ighter": 6720,
      "telling": 6721,
      "mans": 6722,
      "ferent": 6723,
      "feared": 6724,
      "frozen": 6725,
      "answers": 6726,
      "plate": 6727,
      "plural": 6728,
      "plaus": 6729,
      "plaques": 6730,
      "istence": 6731,
      "istics": 6732,
      "crum": 6733,
      "crative": 6734,
      "peru": 6735,
      "perv": 6736,
      "indif": 6737,
      "indirect": 6738,
      "eurobonds": 6739,
      "stra": 6740,
      "strang": 6741,
      "asty": 6742,
      "eval": 6743,
      "evil": 6744,
      "evolution": 6745,
      "newly": 6746,
      "distr": 6747,
      "disman": 6748,
      "disability": 6749,
      "discovered": 6750,
      "grave": 6751,
      "ause": 6752,
      "grows": 6753,
      "uction": 6754,
      "uctive": 6755,
      "finite": 6756,
      "communit": 6757,
      "doha": 6758,
      "goog": 6759,
      "lowest": 6760,
      "cessions": 6761,
      "blue": 6762,
      "blair": 6763,
      "interview": 6764,
      "interven": 6765,
      "premature": 6766,
      "curb": 6767,
      "achuset": 6768,
      "formula": 6769,
      "boy": 6770,
      "fraction": 6771,
      "fraud": 6772,
      "brib": 6773,
      "inequalities": 6774,
      "obsess": 6775,
      "ideology": 6776,
      "investor": 6777,
      "investig": 6778,
      "unite": 6779,
      "supplement": 6780,
      "types": 6781,
      "tyrann": 6782,
      "spin": 6783,
      "spon": 6784,
      "spillo": 6785,
      "forecas": 6786,
      "underground": 6787,
      "highlights": 6788,
      "warning": 6789,
      "province": 6790,
      "caps": 6791,
      "capt": 6792,
      "restaur": 6793,
      "rises": 6794,
      "internationally": 6795,
      "internationalism": 6796,
      "marketing": 6797,
      "corn": 6798,
      "corner": 6799,
      "driver": 6800,
      "assa": 6801,
      "assimilation": 6802,
      "iously": 6803,
      "mayor": 6804,
      "maynard": 6805,
      "turbul": 6806,
      "deciding": 6807,
      "museum": 6808,
      "crisy": 6809,
      "compli": 6810,
      "surround": 6811,
      "healthcare": 6812,
      "reluct": 6813,
      "epic": 6814,
      "eping": 6815,
      "desired": 6816,
      "solving": 6817,
      "solved": 6818,
      "generals": 6819,
      "instinct": 6820,
      "gues": 6821,
      "guess": 6822,
      "guided": 6823,
      "subtle": 6824,
      "simplif": 6825,
      "realizing": 6826,
      "pull": 6827,
      "color": 6828,
      "colom": 6829,
      "bankrupt": 6830,
      "herself": 6831,
      "backdrop": 6832,
      "youngest": 6833,
      "loyal": 6834,
      "turnout": 6835,
      "carter": 6836,
      "carrying": 6837,
      "qualitative": 6838,
      "triump": 6839,
      "signal": 6840,
      "visas": 6841,
      "harness": 6842,
      "pathetic": 6843,
      "careers": 6844,
      "carefully": 6845,
      "securing": 6846,
      "searching": 6847,
      "benefited": 6848,
      "operators": 6849,
      "seeing": 6850,
      "privacy": 6851,
      "monitor": 6852,
      "ranking": 6853,
      "ranks": 6854,
      "sincere": 6855,
      "revival": 6856,
      "rio": 6857,
      "offices": 6858,
      "midst": 6859,
      "directed": 6860,
      "refusing": 6861,
      "matism": 6862,
      "facility": 6863,
      "controvers": 6864,
      "challenging": 6865,
      "suffers": 6866,
      "halt": 6867,
      "oked": 6868,
      "phrase": 6869,
      "equili": 6870,
      "expects": 6871,
      "1992": 6872,
      "1995": 6873,
      "naturally": 6874,
      "writing": 6875,
      "saved": 6876,
      "recognizes": 6877,
      "protected": 6878,
      "protecting": 6879,
      "protections": 6880,
      "weaken": 6881,
      "negotiators": 6882,
      "lifelong": 6883,
      "ethics": 6884,
      "happiness": 6885,
      "arguably": 6886,
      "cited": 6887,
      "burdens": 6888,
      "morally": 6889,
      "elev": 6890,
      "positioned": 6891,
      "ecks": 6892,
      "questionable": 6893,
      "communism": 6894,
      "continental": 6895,
      "handed": 6896,
      "handful": 6897,
      "slowing": 6898,
      "contraction": 6899,
      "orders": 6900,
      "contributing": 6901,
      "merchand": 6902,
      "massachuset": 6903,
      "rational": 6904,
      "wealthiest": 6905,
      "maintenance": 6906,
      "administrations": 6907,
      "supervis": 6908,
      "speculation": 6909,
      "secretar": 6910,
      "prevented": 6911,
      "classroom": 6912,
      "incite": 6913,
      "representing": 6914,
      "shifts": 6915,
      "shifted": 6916,
      "distort": 6917,
      "tested": 6918,
      "constitu": 6919,
      "periods": 6920,
      "situations": 6921,
      "acceptance": 6922,
      "favored": 6923,
      "dangerously": 6924,
      "subsistence": 6925,
      "affects": 6926,
      "ethiopian": 6927,
      "mediate": 6928,
      "bollywood": 6929,
      "respected": 6930,
      "respective": 6931,
      "existence": 6932,
      "lifes": 6933,
      "predictability": 6934,
      "connection": 6935,
      "indicates": 6936,
      "professors": 6937,
      "cleanup": 6938,
      "passage": 6939,
      "varieties": 6940,
      "volume": 6941,
      "conducted": 6942,
      "substance": 6943,
      "achievable": 6944,
      "osama": 6945,
      "outsiders": 6946,
      "excluded": 6947,
      "sooner": 6948,
      "athy": 6949,
      "bills": 6950,
      "winner": 6951,
      "motor": 6952,
      "exporting": 6953,
      "catch": 6954,
      "obviously": 6955,
      "morality": 6956,
      "destabil": 6957,
      "destiny": 6958,
      "glomer": 6959,
      "attractive": 6960,
      "assuming": 6961,
      "russians": 6962,
      "ratify": 6963,
      "reinforcing": 6964,
      "troubles": 6965,
      "urgency": 6966,
      "struggling": 6967,
      "avoided": 6968,
      "protectionist": 6969,
      "watching": 6970,
      "councils": 6971,
      "printing": 6972,
      "purchasing": 6973,
      "accelerated": 6974,
      "cupr": 6975,
      "judged": 6976,
      "allied": 6977,
      "machines": 6978,
      "alien": 6979,
      "acquired": 6980,
      "advocate": 6981,
      "advocating": 6982,
      "describe": 6983,
      "accuracy": 6984,
      "literary": 6985,
      "guns": 6986,
      "stagger": 6987,
      "conclude": 6988,
      "supposedly": 6989,
      "collapsed": 6990,
      "dropped": 6991,
      "lucrative": 6992,
      "sensible": 6993,
      "confrontation": 6994,
      "celebration": 6995,
      "minimize": 6996,
      "prevailing": 6997,
      "villages": 6998,
      "replacement": 6999,
      "occupation": 7000,
      "equipped": 7001,
      "doctor": 7002,
      "mountain": 7003,
      "miracle": 7004,
      "teams": 7005,
      "principal": 7006,
      "frustrated": 7007,
      "narratives": 7008,
      "tougher": 7009,
      "deploying": 7010,
      "skeptics": 7011,
      "implicit": 7012,
      "optimism": 7013,
      "autocr": 7014,
      "obstacle": 7015,
      "ratios": 7016,
      "bureaucratic": 7017,
      "executive": 7018,
      "drove": 7019,
      "reversing": 7020,
      "stalled": 7021,
      "acknowledge": 7022,
      "eliminate": 7023,
      "flags": 7024,
      "perspectives": 7025,
      "volatile": 7026,
      "marginalized": 7027,
      "fronts": 7028,
      "revolt": 7029,
      "witnessing": 7030,
      "stakeholders": 7031,
      "deadly": 7032,
      "consolidation": 7033,
      "navalnys": 7034,
      "punish": 7035,
      "allocate": 7036,
      "allocated": 7037,
      "logging": 7038,
      "hegemon": 7039,
      "combatants": 7040,
      "genuinely": 7041,
      "anticipation": 7042,
      "comfort": 7043,
      "gravity": 7044,
      "heroin": 7045,
      "crowley": 7046,
      "golden": 7047,
      "nazis": 7048,
      "recruit": 7049,
      "conceiv": 7050,
      "balkans": 7051,
      "heritage": 7052,
      "declarations": 7053,
      "functioning": 7054,
      "duty": 7055,
      "daughters": 7056,
      "jailed": 7057,
      "phase": 7058,
      "town": 7059,
      "towns": 7060,
      "subsequent": 7061,
      "normally": 7062,
      "expenditures": 7063,
      "earnings": 7064,
      "schemes": 7065,
      "hypocrisy": 7066,
      "voluntary": 7067,
      "girlfriend": 7068,
      "sacrifice": 7069,
      "pilot": 7070,
      "rudd": 7071,
      "anxiety": 7072,
      "abundant": 7073,
      "poisoned": 7074,
      "continuing": 7075,
      "backgrounds": 7076,
      "meritocr": 7077,
      "predicted": 7078,
      "bouteflika": 7079,
      "bouteflikas": 7080,
      "icao": 7081,
      "aspects": 7082,
      "church": 7083,
      "advertising": 7084,
      "comparative": 7085,
      "kennedy": 7086,
      "excluding": 7087,
      "czech": 7088,
      "paper": 7089,
      "rums": 7090,
      "escalating": 7091,
      "vehicles": 7092,
      "illustrates": 7093,
      "appreciate": 7094,
      "prescription": 7095,
      "preparation": 7096,
      "brightest": 7097,
      "compounded": 7098,
      "georgia": 7099,
      "pipeline": 7100,
      "jihadism": 7101,
      "eradication": 7102,
      "dignity": 7103,
      "hatred": 7104,
      "nightmare": 7105,
      "prompt": 7106,
      "manifest": 7107,
      "perpetu": 7108,
      "underestimated": 7109,
      "categories": 7110,
      "tocqueville": 7111,
      "periphery": 7112,
      "lagos": 7113,
      "shelter": 7114,
      "threshold": 7115,
      "injuries": 7116,
      "intractable": 7117,
      "ensuing": 7118,
      "icultural": 7119,
      "losers": 7120,
      "illnesses": 7121,
      "appointees": 7122,
      "plumme": 7123,
      "syrias": 7124,
      "provinces": 7125,
      "california": 7126,
      "paradigm": 7127,
      "ophobia": 7128,
      "smokestacks": 7129,
      "ingredients": 7130,
      "impairment": 7131,
      "explanation": 7132,
      "maneuver": 7133,
      "perpetrators": 7134,
      "upgrading": 7135,
      "announcement": 7136,
      "malaysia": 7137,
      "confucian": 7138,
      "fragmentation": 7139,
      "fierce": 7140,
      "remembered": 7141,
      "aleppo": 7142,
      "beverages": 7143,
      "impaired": 7144,
      "administered": 7145,
      "protracted": 7146,
      "comparison": 7147,
      "overhaul": 7148,
      "intervene": 7149,
      "equilibr": 7150,
      "merchandise": 7151,
      "massachusetts": 7152,
      "%-": 7153,
      "%).": 7154,
      "150": 7155,
      "37": 7156,
      "38": 7157,
      "41": 7158,
      "42": 7159,
      "43": 7160,
      "47": 7161,
      "73": 7162,
      "88": 7163,
      "93": 7164,
      "95": 7165,
      "ax": 7166,
      "bat": 7167,
      "bun": 7168,
      "bons": 7169,
      "cure": 7170,
      "cade": 7171,
      "drew": 7172,
      "epo": 7173,
      "eigh": 7174,
      "ebol": 7175,
      "ff": 7176,
      "gro": 7177,
      "gif": 7178,
      "gau": 7179,
      "gross": 7180,
      "gaw": 7181,
      "gling": 7182,
      "hod": 7183,
      "hide": 7184,
      "ius": 7185,
      "ience": 7186,
      "jar": 7187,
      "jose": 7188,
      "kor": 7189,
      "kig": 7190,
      "kur": 7191,
      "kid": 7192,
      "kler": 7193,
      "lic": 7194,
      "lum": 7195,
      "lance": 7196,
      "lash": 7197,
      "mc": 7198,
      "mich": 7199,
      "mics": 7200,
      "mik": 7201,
      "mchen": 7202,
      "nit": 7203,
      "nad": 7204,
      "naf": 7205,
      "nest": 7206,
      "nye": 7207,
      "native": 7208,
      "nomin": 7209,
      "nasty": 7210,
      "ois": 7211,
      "ost": 7212,
      "ode": 7213,
      "ogy": 7214,
      "pit": 7215,
      "pand": 7216,
      "pts": 7217,
      "pav": 7218,
      "pound": 7219,
      "pund": 7220,
      "pher": 7221,
      "pump": 7222,
      "pleads": 7223,
      "qat": 7224,
      "rass": 7225,
      "rays": 7226,
      "sab": 7227,
      "swi": 7228,
      "ske": 7229,
      "snow": 7230,
      "sdgs": 7231,
      "tig": 7232,
      "twe": 7233,
      "tress": 7234,
      "temp": 7235,
      "tort": 7236,
      "trop": 7237,
      "tabo": 7238,
      "utop": 7239,
      "vested": 7240,
      "wary": 7241,
      "xon": 7242,
      "ylo": 7243,
      "yemen": 7244,
      "zh": 7245,
      "zed": 7246,
      "input": 7247,
      "insul": 7248,
      "anmar": 7249,
      "angry": 7250,
      "resum": 7251,
      "remed": 7252,
      "retali": 7253,
      "repair": 7254,
      "theme": 7255,
      "theast": 7256,
      "atts": 7257,
      "encing": 7258,
      "enrich": 7259,
      "encompass": 7260,
      "albe": 7261,
      "escap": 7262,
      "esburg": 7263,
      "iss": 7264,
      "isnt": 7265,
      "itate": 7266,
      "toll": 7267,
      "tobac": 7268,
      "icit": 7269,
      "icipal": 7270,
      "edge": 7271,
      "aris": 7272,
      "arsen": 7273,
      "aso": 7274,
      "assur": 7275,
      "stun": 7276,
      "stad": 7277,
      "stig": 7278,
      "roles": 7279,
      "entren": 7280,
      "entang": 7281,
      "entry": 7282,
      "leap": 7283,
      "devis": 7284,
      "degre": 7285,
      "detect": 7286,
      "devote": 7287,
      "depreci": 7288,
      "semin": 7289,
      "segments": 7290,
      "veget": 7291,
      "beaut": 7292,
      "betray": 7293,
      "forging": 7294,
      "forgotten": 7295,
      "chant": 7296,
      "chau": 7297,
      "chose": 7298,
      "tral": 7299,
      "truc": 7300,
      "unexpected": 7301,
      "imid": 7302,
      "importers": 7303,
      "utical": 7304,
      "nowhere": 7305,
      "prox": 7306,
      "proof": 7307,
      "propose": 7308,
      "amylo": 7309,
      "ceiling": 7310,
      "abul": 7311,
      "abound": 7312,
      "abra": 7313,
      "peak": 7314,
      "illicit": 7315,
      "comment": 7316,
      "comers": 7317,
      "irony": 7318,
      "nebr": 7319,
      "agri": 7320,
      "urable": 7321,
      "pope": 7322,
      "poised": 7323,
      "powered": 7324,
      "tsight": 7325,
      "apathy": 7326,
      "keen": 7327,
      "exemp": 7328,
      "extract": 7329,
      "exchanges": 7330,
      "expression": 7331,
      "essay": 7332,
      "eman": 7333,
      "emir": 7334,
      "embed": 7335,
      "lift": 7336,
      "likes": 7337,
      "worries": 7338,
      "rice": 7339,
      "sored": 7340,
      "notable": 7341,
      "notorious": 7342,
      "counting": 7343,
      "gered": 7344,
      "opted": 7345,
      "overs": 7346,
      "overhang": 7347,
      "overseas": 7348,
      "overlooked": 7349,
      "haw": 7350,
      "ifo": 7351,
      "aying": 7352,
      "porter": 7353,
      "tel": 7354,
      "teed": 7355,
      "tepid": 7356,
      "manager": 7357,
      "quot": 7358,
      "fees": 7359,
      "feas": 7360,
      "redirect": 7361,
      "istically": 7362,
      "endors": 7363,
      "crib": 7364,
      "crash": 7365,
      "peril": 7366,
      "pron": 7367,
      "prague": 7368,
      "prais": 7369,
      "yel": 7370,
      "yell": 7371,
      "parity": 7372,
      "cles": 7373,
      "ght": 7374,
      "coinc": 7375,
      "meals": 7376,
      "euros": 7377,
      "wasted": 7378,
      "strides": 7379,
      "evident": 7380,
      "foster": 7381,
      "newcomers": 7382,
      "odd": 7383,
      "presents": 7384,
      "discre": 7385,
      "display": 7386,
      "discontent": 7387,
      "discourage": 7388,
      "discredited": 7389,
      "gras": 7390,
      "grain": 7391,
      "griev": 7392,
      "governors": 7393,
      "fink": 7394,
      "command": 7395,
      "marbles": 7396,
      "pregn": 7397,
      "prejud": 7398,
      "precip": 7399,
      "preferences": 7400,
      "invigor": 7401,
      "bang": 7402,
      "formed": 7403,
      "formally": 7404,
      "contest": 7405,
      "ups": 7406,
      "upper": 7407,
      "upheav": 7408,
      "updating": 7409,
      "bots": 7410,
      "framing": 7411,
      "regis": 7412,
      "regious": 7413,
      "bride": 7414,
      "brave": 7415,
      "brief": 7416,
      "brink": 7417,
      "bern": 7418,
      "inea": 7419,
      "observ": 7420,
      "ideolo": 7421,
      "serbian": 7422,
      "itioners": 7423,
      "spains": 7424,
      "forever": 7425,
      "forefront": 7426,
      "intimid": 7427,
      "undertake": 7428,
      "aceutical": 7429,
      "warri": 7430,
      "ptions": 7431,
      "twist": 7432,
      "restoring": 7433,
      "longstanding": 7434,
      "whats": 7435,
      "drc": 7436,
      "drain": 7437,
      "anytime": 7438,
      "caught": 7439,
      "calip": 7440,
      "stemming": 7441,
      "whereby": 7442,
      "cyn": 7443,
      "factory": 7444,
      "ifications": 7445,
      "debated": 7446,
      "england": 7447,
      "missil": 7448,
      "greatness": 7449,
      "tenure": 7450,
      "guinea": 7451,
      "medved": 7452,
      "differ": 7453,
      "dified": 7454,
      "hub": 7455,
      "courses": 7456,
      "realism": 7457,
      "realities": 7458,
      "void": 7459,
      "consent": 7460,
      "demograph": 7461,
      "reading": 7462,
      "valid": 7463,
      "statements": 7464,
      "statehood": 7465,
      "educate": 7466,
      "iction": 7467,
      "rush": 7468,
      "turnaround": 7469,
      "carries": 7470,
      "carbons": 7471,
      "tribal": 7472,
      "tripled": 7473,
      "benign": 7474,
      "visa": 7475,
      "myri": 7476,
      "myanmar": 7477,
      "extending": 7478,
      "extensive": 7479,
      "reformed": 7480,
      "reforming": 7481,
      "ugandas": 7482,
      "annan": 7483,
      "annesburg": 7484,
      "ghanas": 7485,
      "artists": 7486,
      "offensive": 7487,
      "lined": 7488,
      "lincol": 7489,
      "issuing": 7490,
      "universe": 7491,
      "pays": 7492,
      "reassure": 7493,
      "committees": 7494,
      "humans": 7495,
      "borne": 7496,
      "rank": 7497,
      "planes": 7498,
      "famili": 7499,
      "agreeing": 7500,
      "potent": 7501,
      "potato": 7502,
      "societal": 7503,
      "caut": 7504,
      "cloone": 7505,
      "bio": 7506,
      "matur": 7507,
      "tradable": 7508,
      "traditions": 7509,
      "inflict": 7510,
      "farmland": 7511,
      "bretton": 7512,
      "player": 7513,
      "profile": 7514,
      "bonuses": 7515,
      "regularly": 7516,
      "barbar": 7517,
      "barring": 7518,
      "accords": 7519,
      "accordance": 7520,
      "purposes": 7521,
      "phones": 7522,
      "falls": 7523,
      "appearing": 7524,
      "killings": 7525,
      "wests": 7526,
      "thinks": 7527,
      "airlines": 7528,
      "patron": 7529,
      "shell": 7530,
      "1993": 7531,
      "1997": 7532,
      "1998": 7533,
      "denying": 7534,
      "traw": 7535,
      "hardship": 7536,
      "westerners": 7537,
      "charity": 7538,
      "lifetime": 7539,
      "integrity": 7540,
      "homeland": 7541,
      "moderately": 7542,
      "implied": 7543,
      "awa": 7544,
      "complement": 7545,
      "completed": 7546,
      "burgeon": 7547,
      "schooling": 7548,
      "dangers": 7549,
      "engel": 7550,
      "considering": 7551,
      "considerations": 7552,
      "fuk": 7553,
      "communists": 7554,
      "cleare": 7555,
      "handle": 7556,
      "tony": 7557,
      "slower": 7558,
      "ministry": 7559,
      "ministries": 7560,
      "strengths": 7561,
      "avert": 7562,
      "earned": 7563,
      "earths": 7564,
      "britains": 7565,
      "understands": 7566,
      "liberalizing": 7567,
      "reflection": 7568,
      "civilian": 7569,
      "combust": 7570,
      "combine": 7571,
      "openness": 7572,
      "scientist": 7573,
      "manufactured": 7574,
      "hopeless": 7575,
      "fairness": 7576,
      "cultures": 7577,
      "nigerian": 7578,
      "defenses": 7579,
      "personnel": 7580,
      "practitioners": 7581,
      "names": 7582,
      "doubled": 7583,
      "deepening": 7584,
      "iraqs": 7585,
      "transforming": 7586,
      "transformations": 7587,
      "breakup": 7588,
      "electrons": 7589,
      "testing": 7590,
      "accident": 7591,
      "constitutes": 7592,
      "inflationary": 7593,
      "1987": 7594,
      "hamilt": 7595,
      "consequential": 7596,
      "damaged": 7597,
      "oxford": 7598,
      "confused": 7599,
      "diagnostic": 7600,
      "environmentally": 7601,
      "munde": 7602,
      "municipal": 7603,
      "mediation": 7604,
      "participating": 7605,
      "blocked": 7606,
      "rainforest": 7607,
      "weapon": 7608,
      "existent": 7609,
      "borrowed": 7610,
      "predictions": 7611,
      "connections": 7612,
      "connectivity": 7613,
      "hyper": 7614,
      "activate": 7615,
      "indicator": 7616,
      "influenced": 7617,
      "vulnerabilities": 7618,
      "vari": 7619,
      "introduction": 7620,
      "conducting": 7621,
      "drawing": 7622,
      "genet": 7623,
      "hikes": 7624,
      "mandatory": 7625,
      "relying": 7626,
      "organizational": 7627,
      "specialists": 7628,
      "outsize": 7629,
      "exclusively": 7630,
      "1970": 7631,
      "1979": 7632,
      "commodities": 7633,
      "collusion": 7634,
      "winning": 7635,
      "feels": 7636,
      "feeling": 7637,
      "medication": 7638,
      "medications": 7639,
      "subsidized": 7640,
      "alongside": 7641,
      "destro": 7642,
      "resolutions": 7643,
      "discussions": 7644,
      "gordon": 7645,
      "gorbac": 7646,
      "silk": 7647,
      "retro": 7648,
      "retical": 7649,
      "renewal": 7650,
      "renewables": 7651,
      "kenyas": 7652,
      "dynamism": 7653,
      "rwandas": 7654,
      "ratification": 7655,
      "responded": 7656,
      "stered": 7657,
      "steel": 7658,
      "steward": 7659,
      "depending": 7660,
      "imperfect": 7661,
      "imperatives": 7662,
      "legitimize": 7663,
      "audiences": 7664,
      "diversification": 7665,
      "diversified": 7666,
      "johannesburg": 7667,
      "originally": 7668,
      "mistak": 7669,
      "maternal": 7670,
      "yielding": 7671,
      "avoidance": 7672,
      "mexicos": 7673,
      "murder": 7674,
      "navigate": 7675,
      "troop": 7676,
      "boards": 7677,
      "cuba": 7678,
      "kosovos": 7679,
      "egyptian": 7680,
      "frequency": 7681,
      "spreading": 7682,
      "erosion": 7683,
      "association": 7684,
      "complained": 7685,
      "sympathetic": 7686,
      "restricting": 7687,
      "companys": 7688,
      "acquis": 7689,
      "dictators": 7690,
      "packaging": 7691,
      "surveys": 7692,
      "writers": 7693,
      "disciplines": 7694,
      "proposing": 7695,
      "undermines": 7696,
      "intelligent": 7697,
      "beliefs": 7698,
      "superconducting": 7699,
      "bulge": 7700,
      "enhanced": 7701,
      "mothers": 7702,
      "persuas": 7703,
      "persuade": 7704,
      "meantime": 7705,
      "augment": 7706,
      "intellectually": 7707,
      "profoundly": 7708,
      "egregious": 7709,
      "sensit": 7710,
      "celebrate": 7711,
      "celebrating": 7712,
      "minorities": 7713,
      "hosted": 7714,
      "rigid": 7715,
      "departments": 7716,
      "correctly": 7717,
      "linkages": 7718,
      "barrier": 7719,
      "darfur": 7720,
      "thousand": 7721,
      "clinic": 7722,
      "clinicians": 7723,
      "buyer": 7724,
      "tariff": 7725,
      "guaranteed": 7726,
      "hurric": 7727,
      "laden": 7728,
      "milan": 7729,
      "miles": 7730,
      "albanias": 7731,
      "physical": 7732,
      "physics": 7733,
      "deployed": 7734,
      "interventionism": 7735,
      "honest": 7736,
      "smarter": 7737,
      "tightly": 7738,
      "tightened": 7739,
      "window": 7740,
      "optimal": 7741,
      "permanently": 7742,
      "battlefield": 7743,
      "diets": 7744,
      "homophobia": 7745,
      "rejected": 7746,
      "stabilizing": 7747,
      "triggered": 7748,
      "hearts": 7749,
      "eliminated": 7750,
      "eliminating": 7751,
      "guidelines": 7752,
      "persistently": 7753,
      "marginalization": 7754,
      "cards": 7755,
      "reminder": 7756,
      "reminded": 7757,
      "planting": 7758,
      "markedly": 7759,
      "desert": 7760,
      "deserve": 7761,
      "feminist": 7762,
      "fertilizers": 7763,
      "tolerance": 7764,
      "detailed": 7765,
      "disrupt": 7766,
      "delayed": 7767,
      "philanth": 7768,
      "ethnicity": 7769,
      "adaptation": 7770,
      "keralas": 7771,
      "spectac": 7772,
      "angela": 7773,
      "rewarded": 7774,
      "intensity": 7775,
      "calculations": 7776,
      "electorate": 7777,
      "hedge": 7778,
      "evolved": 7779,
      "automation": 7780,
      "containment": 7781,
      "attempted": 7782,
      "articulated": 7783,
      "targeting": 7784,
      "obligation": 7785,
      "nazi": 7786,
      "recruits": 7787,
      "concentrate": 7788,
      "manipulation": 7789,
      "cycles": 7790,
      "apparent": 7791,
      "curricula": 7792,
      "dutch": 7793,
      "false": 7794,
      "square": 7795,
      "season": 7796,
      "disproportionate": 7797,
      "relentlessly": 7798,
      "customer": 7799,
      "acknowledging": 7800,
      "routinely": 7801,
      "abandoned": 7802,
      "gathering": 7803,
      "humiliation": 7804,
      "tactics": 7805,
      "decrease": 7806,
      "shoes": 7807,
      "channels": 7808,
      "mugabe": 7809,
      "summits": 7810,
      "harmony": 7811,
      "insurgency": 7812,
      "luxury": 7813,
      "enjoyed": 7814,
      "sorts": 7815,
      "recovering": 7816,
      "storage": 7817,
      "storms": 7818,
      "deliberate": 7819,
      "deliberately": 7820,
      "confronted": 7821,
      "application": 7822,
      "privilege": 7823,
      "privileged": 7824,
      "kennedys": 7825,
      "destroyed": 7826,
      "watershed": 7827,
      "abdullah": 7828,
      "crushing": 7829,
      "pragmatic": 7830,
      "inequity": 7831,
      "incumbent": 7832,
      "incumbents": 7833,
      "stagnant": 7834,
      "embraced": 7835,
      "embracing": 7836,
      "ecosystems": 7837,
      "pesticides": 7838,
      "armenia": 7839,
      "abbasid": 7840,
      "coastal": 7841,
      "disastr": 7842,
      "disparities": 7843,
      "marshall": 7844,
      "fruit": 7845,
      "substitute": 7846,
      "joblessness": 7847,
      "electronic": 7848,
      "penalties": 7849,
      "excellence": 7850,
      "mathematics": 7851,
      "explicitly": 7852,
      "diminish": 7853,
      "founder": 7854,
      "fascist": 7855,
      "hierarchy": 7856,
      "kundera": 7857,
      "tasks": 7858,
      "tweets": 7859,
      "accused": 7860,
      "constant": 7861,
      "looming": 7862,
      "abortion": 7863,
      "neutral": 7864,
      "shortsight": 7865,
      "quiet": 7866,
      "documented": 7867,
      "impede": 7868,
      "awakening": 7869,
      "merkel": 7870,
      "lifestyle": 7871,
      "redistribution": 7872,
      "ckets": 7873,
      "tamil": 7874,
      "restructuring": 7875,
      "enlightened": 7876,
      "degradation": 7877,
      "chaos": 7878,
      "confirmed": 7879,
      "prudent": 7880,
      "premium": 7881,
      "temptation": 7882,
      "ambassador": 7883,
      "patriarchal": 7884,
      "repudi": 7885,
      "dilemma": 7886,
      "bowl": 7887,
      "fantas": 7888,
      "giants": 7889,
      "kagame": 7890,
      "lords": 7891,
      "pcp": 7892,
      "pharmaceutical": 7893,
      "wwii": 7894,
      "thomas": 7895,
      "inaugural": 7896,
      "theoretical": 7897,
      "enlargement": 7898,
      "staunch": 7899,
      "hazard": 7900,
      "shinzo": 7901,
      "plausible": 7902,
      "pervasive": 7903,
      "indirectly": 7904,
      "straight": 7905,
      "strangers": 7906,
      "google": 7907,
      "sponsored": 7908,
      "spillover": 7909,
      "forecasts": 7910,
      "compliance": 7911,
      "distortions": 7912,
      "lifesaving": 7913,
      "cuprates": 7914,
      "staggering": 7915,
      "conceivable": 7916,
      "equilibrium": 7917,
      "epoch": 7918,
      "gifts": 7919,
      "kigali": 7920,
      "klerk": 7921,
      "mikhail": 7922,
      "nafta": 7923,
      "nyere": 7924,
      "qatar": 7925,
      "swift": 7926,
      "tempting": 7927,
      "tropical": 7928,
      "taboo": 7929,
      "albeit": 7930,
      "tobacco": 7931,
      "entrenched": 7932,
      "degrees": 7933,
      "amyloid": 7934,
      "nebrask": 7935,
      "endorsed": 7936,
      "warriors": 7937,
      "missiles": 7938,
      "medvedev": 7939,
      "myriad": 7940,
      "familiar": 7941,
      "burgeoning": 7942,
      "hamiltons": 7943,
      "gorbache": 7944,
      "philanthrop": 7945,
      "shortsighted": 7946,
      ");": 7947,
      ",\"": 7948,
      ".\"": 7949,
      "05": 7950,
      "140": 7951,
      "125": 7952,
      "54": 7953,
      "59": 7954,
      "66": 7955,
      "76": 7956,
      "77": 7957,
      "800": 7958,
      "awi": 7959,
      "athen": 7960,
      "bh": 7961,
      "bis": 7962,
      "bent": 7963,
      "bts": 7964,
      "bone": 7965,
      "bread": 7966,
      "bands": 7967,
      "bitter": 7968,
      "cable": 7969,
      "cater": 7970,
      "ccam": 7971,
      "dad": 7972,
      "deng": 7973,
      "dles": 7974,
      "dying": 7975,
      "dued": 7976,
      "etr": 7977,
      "fre": 7978,
      "fdi": 7979,
      "flying": 7980,
      "fishing": 7981,
      "gate": 7982,
      "gists": 7983,
      "games": 7984,
      "hin": 7985,
      "hion": 7986,
      "hem": 7987,
      "hack": 7988,
      "iu": 7989,
      "iar": 7990,
      "iam": 7991,
      "iaries": 7992,
      "iques": 7993,
      "jol": 7994,
      "jam": 7995,
      "jur": 7996,
      "jef": 7997,
      "jump": 7998,
      "kof": 7999
    },
    "merges": [
      [
        "t",
        "h"
      ],
      [
        "i",
        "n"
      ],
      [
        "a",
        "n"
      ],
      [
        "r",
        "e"
      ],
      [
        "th",
        "e"
      ],
      [
        "o",
        "n"
      ],
      [
        "e",
        "r"
      ],
      [
        "a",
        "t"
      ],
      [
        "e",
        "n"
      ],
      [
        "a",
        "l"
      ],
      [
        "e",
        "s"
      ],
      [
        "o",
        "r"
      ],
      [
        "i",
        "s"
      ],
      [
        "i",
        "t"
      ],
      [
        "t",
        "o"
      ],
      [
        "i",
        "c"
      ],
      [
        "e",
        "d"
      ],
      [
        "an",
        "d"
      ],
      [
        "a",
        "r"
      ],
      [
        "in",
        "g"
      ],
      [
        "a",
        "s"
      ],
      [
        "o",
        "f"
      ],
      [
        "o",
        "u"
      ],
      [
        "i",
        "on"
      ],
      [
        "s",
        "t"
      ],
      [
        "r",
        "o"
      ],
      [
        "en",
        "t"
      ],
      [
        "l",
        "e"
      ],
      [
        "o",
        "m"
      ],
      [
        "d",
        "e"
      ],
      [
        "i",
        "l"
      ],
      [
        "s",
        "e"
      ],
      [
        "v",
        "e"
      ],
      [
        "a",
        "c"
      ],
      [
        "l",
        "y"
      ],
      [
        "b",
        "e"
      ],
      [
        "f",
        "or"
      ],
      [
        "c",
        "h"
      ],
      [
        "c",
        "on"
      ],
      [
        "t",
        "r"
      ],
      [
        "o",
        "l"
      ],
      [
        "at",
        "ion"
      ],
      [
        "u",
        "n"
      ],
      [
        "th",
        "at"
      ],
      [
        "s",
        "u"
      ],
      [
        "i",
        "m"
      ],
      [
        "l",
        "o"
      ],
      [
        "w",
        "h"
      ],
      [
        "a",
        "d"
      ],
      [
        "v",
        "er"
      ],
      [
        "u",
        "t"
      ],
      [
        "n",
        "o"
      ],
      [
        "m",
        "o"
      ],
      [
        "m",
        "ent"
      ],
      [
        "p",
        "ro"
      ],
      [
        "a",
        "m"
      ],
      [
        "c",
        "t"
      ],
      [
        "i",
        "es"
      ],
      [
        "l",
        "d"
      ],
      [
        "c",
        "e"
      ],
      [
        "i",
        "g"
      ],
      [
        "a",
        "b"
      ],
      [
        "u",
        "s"
      ],
      [
        "a",
        "re"
      ],
      [
        "t",
        "er"
      ],
      [
        "p",
        "e"
      ],
      [
        "il",
        "l"
      ],
      [
        "ou",
        "n"
      ],
      [
        "c",
        "om"
      ],
      [
        "i",
        "r"
      ],
      [
        "n",
        "e"
      ],
      [
        "a",
        "g"
      ],
      [
        "u",
        "r"
      ],
      [
        "re",
        "s"
      ],
      [
        "i",
        "d"
      ],
      [
        "at",
        "e"
      ],
      [
        "w",
        "e"
      ],
      [
        "p",
        "o"
      ],
      [
        "w",
        "i"
      ],
      [
        "it",
        "y"
      ],
      [
        "t",
        "s"
      ],
      [
        "u",
        "l"
      ],
      [
        "wi",
        "th"
      ],
      [
        "a",
        "p"
      ],
      [
        "a",
        "f"
      ],
      [
        "er",
        "s"
      ],
      [
        "k",
        "e"
      ],
      [
        "m",
        "a"
      ],
      [
        "e",
        "x"
      ],
      [
        "es",
        "s"
      ],
      [
        "es",
        "t"
      ],
      [
        "e",
        "m"
      ],
      [
        "l",
        "i"
      ],
      [
        "h",
        "e"
      ],
      [
        "w",
        "or"
      ],
      [
        "r",
        "ic"
      ],
      [
        "b",
        "y"
      ],
      [
        "ou",
        "ld"
      ],
      [
        "s",
        "o"
      ],
      [
        "no",
        "t"
      ],
      [
        "c",
        "oun"
      ],
      [
        "b",
        "ut"
      ],
      [
        "g",
        "e"
      ],
      [
        "o",
        "p"
      ],
      [
        "o",
        "ver"
      ],
      [
        "i",
        "al"
      ],
      [
        "h",
        "a"
      ],
      [
        "i",
        "ve"
      ],
      [
        "i",
        "f"
      ],
      [
        "the",
        "r"
      ],
      [
        "a",
        "in"
      ],
      [
        "al",
        "l"
      ],
      [
        "i",
        "v"
      ],
      [
        "s",
        "h"
      ],
      [
        "a",
        "y"
      ],
      [
        "w",
        "ill"
      ],
      [
        "p",
        "ol"
      ],
      [
        "h",
        "as"
      ],
      [
        "p",
        "or"
      ],
      [
        "on",
        "e"
      ],
      [
        "ha",
        "ve"
      ],
      [
        "ig",
        "h"
      ],
      [
        "coun",
        "tr"
      ],
      [
        "mo",
        "re"
      ],
      [
        "t",
        "e"
      ],
      [
        "e",
        "con"
      ],
      [
        "m",
        "an"
      ],
      [
        "u",
        "st"
      ],
      [
        "econ",
        "om"
      ],
      [
        "q",
        "u"
      ],
      [
        "f",
        "e"
      ],
      [
        "it",
        "s"
      ],
      [
        "ou",
        "t"
      ],
      [
        "i",
        "z"
      ],
      [
        "f",
        "ro"
      ],
      [
        "an",
        "s"
      ],
      [
        "fro",
        "m"
      ],
      [
        "p",
        "l"
      ],
      [
        "ac",
        "t"
      ],
      [
        "e",
        "u"
      ],
      [
        "af",
        "ric"
      ],
      [
        "re",
        "d"
      ],
      [
        "is",
        "t"
      ],
      [
        "ic",
        "al"
      ],
      [
        "en",
        "d"
      ],
      [
        "th",
        "is"
      ],
      [
        "ion",
        "s"
      ],
      [
        "c",
        "r"
      ],
      [
        "the",
        "ir"
      ],
      [
        "p",
        "er"
      ],
      [
        "p",
        "r"
      ],
      [
        "y",
        "e"
      ],
      [
        "re",
        "n"
      ],
      [
        "in",
        "d"
      ],
      [
        "p",
        "ar"
      ],
      [
        "c",
        "l"
      ],
      [
        "ou",
        "r"
      ],
      [
        "por",
        "t"
      ],
      [
        "g",
        "h"
      ],
      [
        "an",
        "t"
      ],
      [
        "2",
        "0"
      ],
      [
        "c",
        "o"
      ],
      [
        "countr",
        "ies"
      ],
      [
        "d",
        "er"
      ],
      [
        "m",
        "e"
      ],
      [
        "c",
        "an"
      ],
      [
        "eu",
        "ro"
      ],
      [
        "o",
        "w"
      ],
      [
        "w",
        "as"
      ],
      [
        "wor",
        "ld"
      ],
      [
        "ro",
        "w"
      ],
      [
        "ab",
        "le"
      ],
      [
        "st",
        "r"
      ],
      [
        "on",
        "g"
      ],
      [
        "as",
        "t"
      ],
      [
        "c",
        "re"
      ],
      [
        "i",
        "a"
      ],
      [
        "e",
        "v"
      ],
      [
        "f",
        "o"
      ],
      [
        "n",
        "ation"
      ],
      [
        "b",
        "al"
      ],
      [
        "the",
        "y"
      ],
      [
        "u",
        "re"
      ],
      [
        "e",
        "f"
      ],
      [
        "ne",
        "w"
      ],
      [
        "o",
        "d"
      ],
      [
        "ye",
        "ar"
      ],
      [
        "c",
        "ial"
      ],
      [
        "c",
        "ent"
      ],
      [
        "th",
        "an"
      ],
      [
        "p",
        "res"
      ],
      [
        "ic",
        "h"
      ],
      [
        "d",
        "is"
      ],
      [
        "g",
        "r"
      ],
      [
        "over",
        "n"
      ],
      [
        "w",
        "ould"
      ],
      [
        "a",
        "u"
      ],
      [
        "g",
        "overn"
      ],
      [
        "g",
        "row"
      ],
      [
        "wh",
        "ich"
      ],
      [
        "u",
        "ct"
      ],
      [
        "u",
        "m"
      ],
      [
        "an",
        "ce"
      ],
      [
        "o",
        "ther"
      ],
      [
        "at",
        "ed"
      ],
      [
        "f",
        "in"
      ],
      [
        "ou",
        "s"
      ],
      [
        "par",
        "t"
      ],
      [
        "ar",
        "y"
      ],
      [
        "com",
        "m"
      ],
      [
        "d",
        "o"
      ],
      [
        "ou",
        "gh"
      ],
      [
        "econom",
        "ic"
      ],
      [
        "ag",
        "e"
      ],
      [
        "i",
        "e"
      ],
      [
        "no",
        "w"
      ],
      [
        "i",
        "p"
      ],
      [
        "m",
        "ar"
      ],
      [
        "nation",
        "al"
      ],
      [
        "g",
        "o"
      ],
      [
        "lo",
        "w"
      ],
      [
        "at",
        "es"
      ],
      [
        "c",
        "ess"
      ],
      [
        "b",
        "l"
      ],
      [
        "in",
        "ter"
      ],
      [
        "g",
        "lo"
      ],
      [
        "ac",
        "k"
      ],
      [
        "ig",
        "n"
      ],
      [
        "om",
        "e"
      ],
      [
        "ar",
        "d"
      ],
      [
        "p",
        "re"
      ],
      [
        "ve",
        "lo"
      ],
      [
        "c",
        "ur"
      ],
      [
        "glo",
        "bal"
      ],
      [
        "de",
        "velo"
      ],
      [
        "ment",
        "s"
      ],
      [
        "develo",
        "p"
      ],
      [
        "in",
        "v"
      ],
      [
        "ac",
        "h"
      ],
      [
        "b",
        "an"
      ],
      [
        "euro",
        "pe"
      ],
      [
        "for",
        "m"
      ],
      [
        "con",
        "t"
      ],
      [
        "igh",
        "t"
      ],
      [
        "am",
        "er"
      ],
      [
        "k",
        "ing"
      ],
      [
        "b",
        "le"
      ],
      [
        "u",
        "p"
      ],
      [
        "pol",
        "it"
      ],
      [
        "t",
        "a"
      ],
      [
        "amer",
        "ic"
      ],
      [
        "u",
        "c"
      ],
      [
        "b",
        "o"
      ],
      [
        "mo",
        "st"
      ],
      [
        "f",
        "r"
      ],
      [
        "ch",
        "in"
      ],
      [
        "re",
        "g"
      ],
      [
        "pol",
        "ic"
      ],
      [
        "re",
        "at"
      ],
      [
        "f",
        "ic"
      ],
      [
        "le",
        "ad"
      ],
      [
        "u",
        "d"
      ],
      [
        "en",
        "ce"
      ],
      [
        "li",
        "ke"
      ],
      [
        "b",
        "r"
      ],
      [
        "ation",
        "s"
      ],
      [
        "pe",
        "op"
      ],
      [
        "po",
        "s"
      ],
      [
        "wh",
        "o"
      ],
      [
        "ne",
        "ed"
      ],
      [
        "a",
        "v"
      ],
      [
        "b",
        "er"
      ],
      [
        "e",
        "l"
      ],
      [
        "com",
        "e"
      ],
      [
        "man",
        "y"
      ],
      [
        "re",
        "e"
      ],
      [
        "in",
        "e"
      ],
      [
        "ul",
        "t"
      ],
      [
        "l",
        "l"
      ],
      [
        "o",
        "b"
      ],
      [
        "or",
        "s"
      ],
      [
        "s",
        "ome"
      ],
      [
        "i",
        "re"
      ],
      [
        "a",
        "de"
      ],
      [
        "the",
        "re"
      ],
      [
        "p",
        "le"
      ],
      [
        "grow",
        "th"
      ],
      [
        "be",
        "en"
      ],
      [
        "ch",
        "an"
      ],
      [
        "i",
        "de"
      ],
      [
        "s",
        "er"
      ],
      [
        "peop",
        "le"
      ],
      [
        "k",
        "s"
      ],
      [
        "t",
        "ing"
      ],
      [
        "c",
        "es"
      ],
      [
        "the",
        "se"
      ],
      [
        "inv",
        "est"
      ],
      [
        "en",
        "er"
      ],
      [
        "it",
        "ion"
      ],
      [
        "al",
        "th"
      ],
      [
        "oun",
        "d"
      ],
      [
        "en",
        "s"
      ],
      [
        "im",
        "e"
      ],
      [
        "un",
        "it"
      ],
      [
        "i",
        "le"
      ],
      [
        "il",
        "ity"
      ],
      [
        "afric",
        "a"
      ],
      [
        "su",
        "p"
      ],
      [
        "ev",
        "en"
      ],
      [
        "year",
        "s"
      ],
      [
        "wh",
        "e"
      ],
      [
        "t",
        "y"
      ],
      [
        "ill",
        "ion"
      ],
      [
        "s",
        "p"
      ],
      [
        "fo",
        "re"
      ],
      [
        "r",
        "a"
      ],
      [
        "s",
        "y"
      ],
      [
        "on",
        "ly"
      ],
      [
        "al",
        "ly"
      ],
      [
        "in",
        "t"
      ],
      [
        "su",
        "ch"
      ],
      [
        "al",
        "so"
      ],
      [
        "un",
        "der"
      ],
      [
        "u",
        "e"
      ],
      [
        "fin",
        "an"
      ],
      [
        "g",
        "er"
      ],
      [
        "sh",
        "ould"
      ],
      [
        "polit",
        "ical"
      ],
      [
        "ac",
        "e"
      ],
      [
        "l",
        "ess"
      ],
      [
        "i",
        "an"
      ],
      [
        "p",
        "u"
      ],
      [
        "ow",
        "n"
      ],
      [
        "w",
        "er"
      ],
      [
        "m",
        "in"
      ],
      [
        "m",
        "ust"
      ],
      [
        "is",
        "h"
      ],
      [
        "pu",
        "bl"
      ],
      [
        "g",
        "y"
      ],
      [
        "w",
        "ay"
      ],
      [
        "is",
        "m"
      ],
      [
        "res",
        "s"
      ],
      [
        "c",
        "ould"
      ],
      [
        "wor",
        "k"
      ],
      [
        "cre",
        "as"
      ],
      [
        "polic",
        "y"
      ],
      [
        "l",
        "ar"
      ],
      [
        "h",
        "igh"
      ],
      [
        "w",
        "ar"
      ],
      [
        "be",
        "t"
      ],
      [
        "le",
        "ct"
      ],
      [
        "pro",
        "v"
      ],
      [
        "ab",
        "out"
      ],
      [
        "un",
        "d"
      ],
      [
        "id",
        "ent"
      ],
      [
        "ol",
        "d"
      ],
      [
        "p",
        "t"
      ],
      [
        "t",
        "w"
      ],
      [
        "c",
        "ap"
      ],
      [
        "in",
        "creas"
      ],
      [
        "re",
        "st"
      ],
      [
        "at",
        "ive"
      ],
      [
        "in",
        "te"
      ],
      [
        "pro",
        "d"
      ],
      [
        "r",
        "is"
      ],
      [
        "h",
        "is"
      ],
      [
        "inter",
        "national"
      ],
      [
        "wh",
        "en"
      ],
      [
        "publ",
        "ic"
      ],
      [
        "l",
        "ong"
      ],
      [
        "it",
        "al"
      ],
      [
        "wh",
        "at"
      ],
      [
        "mar",
        "ke"
      ],
      [
        "am",
        "e"
      ],
      [
        "1",
        "9"
      ],
      [
        "c",
        "or"
      ],
      [
        "govern",
        "ment"
      ],
      [
        "t",
        "ed"
      ],
      [
        "d",
        "r"
      ],
      [
        "m",
        "s"
      ],
      [
        "as",
        "s"
      ],
      [
        "i",
        "ous"
      ],
      [
        "po",
        "wer"
      ],
      [
        "ma",
        "y"
      ],
      [
        "chin",
        "a"
      ],
      [
        "le",
        "ar"
      ],
      [
        "f",
        "ul"
      ],
      [
        "an",
        "y"
      ],
      [
        "we",
        "re"
      ],
      [
        "f",
        "l"
      ],
      [
        "20",
        "1"
      ],
      [
        "c",
        "au"
      ],
      [
        "f",
        "ar"
      ],
      [
        "cont",
        "in"
      ],
      [
        "f",
        "ir"
      ],
      [
        "p",
        "ut"
      ],
      [
        "develop",
        "ment"
      ],
      [
        "j",
        "ust"
      ],
      [
        "c",
        "al"
      ],
      [
        "ren",
        "t"
      ],
      [
        "20",
        "0"
      ],
      [
        "t",
        "ur"
      ],
      [
        "wh",
        "ile"
      ],
      [
        "de",
        "c"
      ],
      [
        "h",
        "o"
      ],
      [
        "at",
        "ing"
      ],
      [
        "d",
        "ay"
      ],
      [
        "st",
        "em"
      ],
      [
        "cau",
        "se"
      ],
      [
        "countr",
        "y"
      ],
      [
        "m",
        "u"
      ],
      [
        "the",
        "m"
      ],
      [
        "a",
        "k"
      ],
      [
        "c",
        "er"
      ],
      [
        "whe",
        "re"
      ],
      [
        "cr",
        "is"
      ],
      [
        "finan",
        "cial"
      ],
      [
        "ver",
        "y"
      ],
      [
        "com",
        "p"
      ],
      [
        "ma",
        "in"
      ],
      [
        "s",
        "i"
      ],
      [
        "at",
        "er"
      ],
      [
        "il",
        "d"
      ],
      [
        "ent",
        "s"
      ],
      [
        "f",
        "a"
      ],
      [
        "su",
        "r"
      ],
      [
        "he",
        "alth"
      ],
      [
        "lead",
        "ers"
      ],
      [
        "afric",
        "an"
      ],
      [
        "re",
        "l"
      ],
      [
        "c",
        "ed"
      ],
      [
        "o",
        "se"
      ],
      [
        "fe",
        "ct"
      ],
      [
        "c",
        "y"
      ],
      [
        "tr",
        "ans"
      ],
      [
        "c",
        "i"
      ],
      [
        "in",
        "to"
      ],
      [
        "it",
        "ies"
      ],
      [
        "st",
        "ates"
      ],
      [
        "pres",
        "ident"
      ],
      [
        "sy",
        "stem"
      ],
      [
        "e",
        "p"
      ],
      [
        "t",
        "ime"
      ],
      [
        "chan",
        "ge"
      ],
      [
        "f",
        "act"
      ],
      [
        "d",
        "es"
      ],
      [
        "su",
        "m"
      ],
      [
        "if",
        "ic"
      ],
      [
        "ol",
        "o"
      ],
      [
        "de",
        "b"
      ],
      [
        "ver",
        "s"
      ],
      [
        "a",
        "id"
      ],
      [
        "he",
        "l"
      ],
      [
        "v",
        "ic"
      ],
      [
        "unit",
        "ed"
      ],
      [
        "or",
        "y"
      ],
      [
        "s",
        "ol"
      ],
      [
        "mu",
        "ch"
      ],
      [
        "f",
        "und"
      ],
      [
        "en",
        "g"
      ],
      [
        "tr",
        "ade"
      ],
      [
        "econom",
        "y"
      ],
      [
        "re",
        "cent"
      ],
      [
        "tw",
        "o"
      ],
      [
        "em",
        "p"
      ],
      [
        "b",
        "as"
      ],
      [
        "m",
        "is"
      ],
      [
        "l",
        "ed"
      ],
      [
        "g",
        "ener"
      ],
      [
        "h",
        "ad"
      ],
      [
        "th",
        "ose"
      ],
      [
        "in",
        "st"
      ],
      [
        "be",
        "cause"
      ],
      [
        "im",
        "ate"
      ],
      [
        "g",
        "reat"
      ],
      [
        "j",
        "e"
      ],
      [
        "pro",
        "ble"
      ],
      [
        "cris",
        "is"
      ],
      [
        "iz",
        "ation"
      ],
      [
        "st",
        "and"
      ],
      [
        "pe",
        "ct"
      ],
      [
        "ic",
        "s"
      ],
      [
        "t",
        "en"
      ],
      [
        "g",
        "u"
      ],
      [
        "hel",
        "p"
      ],
      [
        "m",
        "ed"
      ],
      [
        "con",
        "d"
      ],
      [
        "af",
        "ter"
      ],
      [
        "ust",
        "r"
      ],
      [
        "sup",
        "port"
      ],
      [
        "ad",
        "d"
      ],
      [
        "or",
        "t"
      ],
      [
        "ar",
        "ly"
      ],
      [
        "prod",
        "uct"
      ],
      [
        "at",
        "t"
      ],
      [
        "0",
        "0"
      ],
      [
        "d",
        "if"
      ],
      [
        "f",
        "er"
      ],
      [
        "we",
        "ll"
      ],
      [
        "j",
        "ap"
      ],
      [
        "r",
        "ough"
      ],
      [
        "al",
        "s"
      ],
      [
        "ut",
        "ion"
      ],
      [
        "ex",
        "am"
      ],
      [
        "iz",
        "e"
      ],
      [
        "europe",
        "an"
      ],
      [
        "h",
        "u"
      ],
      [
        "su",
        "b"
      ],
      [
        "im",
        "port"
      ],
      [
        "l",
        "and"
      ],
      [
        "ab",
        "ility"
      ],
      [
        "te",
        "ch"
      ],
      [
        "in",
        "cl"
      ],
      [
        "s",
        "im"
      ],
      [
        "de",
        "m"
      ],
      [
        "d",
        "i"
      ],
      [
        "is",
        "ts"
      ],
      [
        "ur",
        "al"
      ],
      [
        "re",
        "qu"
      ],
      [
        "c",
        "our"
      ],
      [
        "re",
        "main"
      ],
      [
        "re",
        "al"
      ],
      [
        "se",
        "l"
      ],
      [
        "it",
        "e"
      ],
      [
        "tech",
        "n"
      ],
      [
        "we",
        "en"
      ],
      [
        "p",
        "on"
      ],
      [
        "t",
        "al"
      ],
      [
        "v",
        "o"
      ],
      [
        "se",
        "t"
      ],
      [
        "fir",
        "st"
      ],
      [
        "b",
        "us"
      ],
      [
        "l",
        "a"
      ],
      [
        "ter",
        "n"
      ],
      [
        "ag",
        "ain"
      ],
      [
        "go",
        "od"
      ],
      [
        "bet",
        "ween"
      ],
      [
        "n",
        "ing"
      ],
      [
        "p",
        "ul"
      ],
      [
        "su",
[...]
